#version: 0.2 - Trained by `huggingface/tokenizers`
t h
Ġ a
Ġ .
e r
Ġ w
th e
Ġ s
r e
Ġ i
n d
Ġ f
i n
c e
Ġ the
Ġ b
Ġ t
a s
Ġ p
Ġa nd
Ġ c
a t
Ġ h
Ġ o
Ġ g
o o
Ġ m
o u
e n
l l
o r
Ġ d
Ġ n
Ġ !
e s
e d
Ġ ,
in g
i s
o n
Ġ l
Ġi s
Ġw as
v er
Ġ th
i t
oo d
a n
l y
v e
r i
Ġt o
o m
Ġ e
l e
s t
Ġ re
l a
er e
i ce
a r
o t
re at
i c
a l
u t
ver y
Ġh a
Ġs t
Ġi n
Ġb e
Ġo f
a y
Ġi t
Ġ '
er v
Ġp la
m e
Ġw i
Ġpla ce
Ġf or
en t
erv ice
a ll
e l
Ġf ood
Ġth is
Ġg reat
Ġ y
Ġs ervice
u r
u m
Ġg ood
Ġa re
g h
i on
o w
Ġo n
e t
a c
as t
u s
Ġc h
u st
Ġy ou
n um
Ġm y
i r
l d
Ġl o
Ġe x
Ġ very
i d
f f
e nd
es t
Ġn ot
b le
Ġa l
Ġwi th
Ġa t
a d
k e
c h
Ġ _
Ġf ri
' t
all y
u n
Ġm e
Ġw e
om e
p p
Ġha ve
r o
an t
e c
Ġa n
th is
w ay
it e
Ġw h
s o
Ġh ere
Ġ j
u l
Ġfri end
ou s
ou ld
p er
Ġth at
Ġw or
Ġs o
on e
g reat
way s
ac k
Ġn e
a ff
Ġw ere
c om
Ġha d
Ġs h
Ġs a
i gh
Ġfriend ly
re s
Ġd o
t er
Ġt i
the y
Ġa s
Ġa m
Ġ r
ri ce
Ġthe y
es s
f ul
q u
Ġst aff
Ġo r
e f
Ġg o
Ġs e
Ġb ut
Ġal ways
Ġf a
Ġlo ve
Ġl i
w e
Ġs p
me nd
Ġb ack
com mend
o s
Ġre commend
a k
er s
Ġs u
Ġb est
g e
i ous
Ġa ll
i ve
Ġ k
Ġc om
Ġo ut
a z
o re
oo k
th ing
Ġwi ll
Ġre ally
a in
Ġd el
a ble
ic k
Ġp rice
az ing
Ġn o
Ġti me
o p
en ce
a nd
m p
l o
Ġn ice
Ġc a
i ence
th er
i ll
i z
Ġ v
h e
Ġ qu
t ion
Ġex per
v or
Ġj ust
Ġexper ience
at ion
ic ious
Ġd is
Ġg et
Ġ u
m y
Ġth ere
ou r
t y
Ġam azing
k s
Ġw ould
ef in
Ġa b
s e
efin ite
at e
efinite ly
ust om
n t
Ġli ke
in t
Ġf r
v en
Ġdel icious
Ġc ustom
a it
i l
Ġp ro
Ġc o
d er
ri ble
a m
Ġthe ir
Ġ us
r y
ce ll
Ġe ver
ou t
Ġt ast
ou gh
cell ent
Ġd id
Ġan y
Ġa g
o int
w h
Ġon e
Ġh as
Ġo ur
Ġ en
Ġwe ll
Ġw ait
Ġt oo
Ġu p
Ġre st
Ġe very
a ke
a b
or t
el p
Ġor der
o nd
Ġbe en
Ġcustom er
Ġlo c
ur ant
le an
i e
a urant
igh t
ic h
is t
res h
Ġrest aurant
Ġd efinitely
ec t
a pp
Ġag ain
Ġal so
Ġs ome
Ġyou r
Ġst ar
iz z
Ġc lean
m ent
Ġfr om
Ġh e
Ġh elp
Ġof f
. .
d e
Ġp e
it y
v ed
Ġ ri
Ġa w
es ome
Ġf resh
Ġp re
Ġ. ..
o y
izz a
w n
n ow
Ġe ven
res s
Ġfa vor
ou nd
i nd
Ġthe m
Ġc on
Ġm an
igh ly
Ġwor k
Ġo ver
Ġp izza
in e
Ġb re
Ġd e
t e
Ġex cellent
re d
lo ve
Ġf e
Ġ un
Ġfavor ite
Ġab out
a g
ar d
Ġb ar
e m
n o
k ed
Ġ ?
ut e
os p
Ġcom p
on g
app oint
op le
it t
is h
o st
Ġc r
th an
t ty
Ġne ver
Ġg ot
Ġl ook
Ġb ad
ow n
s he
Ġk now
Ġpe ople
Ġprice s
i f
Ġe at
Ġm in
Ġg u
Ġc an
h ere
Ġloc ation
Ġc ould
un ch
Ġha pp
Ġdis appoint
as on
m i
e a
i g
u ch
Ġwor th
Ġp h
Ġa r
Ġwh at
Ġth an
osp here
ec i
ick en
m osphere
j oy
g ood
n ot
or rible
e very
e es
ond er
Ġc ar
Ġ $
Ġd r
Ġ ve
Ġat mosphere
oo m
c t
ad e
h i
Ġpre tty
la d
Ġp er
ing s
Ġch icken
u de
so l
Ġs al
Ġh ot
ur n
Ġj o
b ut
Ġgo ing
Ġaw esome
id e
Ġb us
e x
Ġbe t
Ġt r
i m
Ġb y
onder ful
Ġa pp
b est
ast ic
Ġen joy
c tion
sol ute
d ay
al ity
o ther
Ġi f
Ġm uch
Ġp ar
f ect
Ġhelp ful
Ġhapp y
a ge
ou p
Ġbet ter
ant astic
Ġm ore
Ġb r
le as
Ġf la
i an
gh t
Ġc l
ion al
u e
Ġse le
f ood
c a
s ervice
Ġd in
f ter
ir st
Ġsu per
Ġon ly
Ġsele ction
oo r
Ġre ason
Ġl unch
Ġ ro
f ast
Ġfla vor
mi ly
Ġs er
Ġst ore
Ġqu ality
Ġfa mily
e ar
as s
Ġwh en
Ġh ighly
Ġ -
Ġc ome
f ess
Ġsh e
solute ly
itt le
Ġve g
Ġ &
Ġw onderful
i ent
Ġat t
Ġt er
us e
Ġdr in
Ġf ast
Ġex t
fess ional
Ġne w
Ġb ur
Ġper fect
Ġwor st
Ġjo b
Ġl ittle
c k
u ce
Ġd ay
Ġb u
Ġgu y
Ġd own
ut es
Ġmin utes
th ere
Ġorder ed
i p
Ġm ade
is it
eci al
u re
a re
w ich
Ġsa nd
Ġo wn
Ġf antastic
oo l
Ġh our
Ġf un
Ġsp ecial
Ġi mp
Ġ )
o l
b e
Ġri ght
Ġn ight
Ġw ay
i es
Ġs m
Ġp leas
en u
Ġt e
Ġwh o
Ġg ive
Ġw ant
Ġsand wich
Ġo p
Ġv isit
Ġs ay
Ġr ude
Ġg r
d o
e ver
Ġsp ot
f ort
Ġex p
Ġo ther
Ġsa lad
in ess
re e
Ġfe el
at er
n er
t urn
Ġme al
a il
ce nt
Ġh ow
Ġne ed
one y
the ir
at ed
Ġbre ak
Ġqu ick
Ġp l
Ġh orrible
Ġre turn
i x
Ġw ent
Ġy ear
Ġstar s
ie w
Ġca re
re me
Ġm ake
Ġb o
Ġst e
ak es
Ġbus iness
Ġ' '
f ri
Ġca me
Ġh er
Ġp or
w or
Ġt ake
f e
Ġdisappoint ed
Ġtast y
e e
Ġa fter
Ġt w
ac h
Ġw al
Ġm enu
Ġwh ich
Ġbreak fast
than k
Ġpro fessional
reme ly
Ġm oney
l es
l ow
Ġh ome
g g
Ġr oom
Ġt ry
Ġevery thing
Ġch ees
us hi
wh at
` `
Ġc all
a p
o ver
Ġch ar
Ġph o
Ġsa id
Ġe mp
Ġto wn
Ġt ri
tion s
Ġar ound
Ġsa uce
a ve
Ġa d
e p
Ġf irst
v ing
Ġbe ca
y ou
a w
s s
er t
k ing
Ġs ushi
ook ed
Ġth ough
Ġw r
Ġsh op
l ed
p t
Ġst ill
Ġbeca use
Ġter rible
Ġti m
Ġdo es
Ġno thing
ab ly
t o
fri end
a i
an y
Ġcom ing
Ġab solutely
Ġm ost
Ġser ver
Ġl ot
Ġin c
Ġd i
s ide
ed i
ex cellent
en s
Ġext remely
than ks
Ġtim es
Ġa c
Ġ ``
al ways
Ġd es
Ġf ind
Ġ ke
Ġguy s
Ġare a
at ing
Ġsu re
s ist
Ġg re
Ġatt ent
Ġlo ved
ic an
Ġse e
Ġm o
h ighly
la r
Ġf ar
Ġreason able
Ġchees e
u ally
u ll
ac t
d efinitely
Ġch ec
Ġimp ress
ers on
f or
b er
Ġb ig
every thing
Ġwe e
Ġst ay
i le
Ġl ong
Ġo k
Ġse em
Ġo ld
es e
st and
Ġdin ner
Ġsh ould
th at
Ġan other
Ġdel i
Ġde al
g er
Ġ (
b o
Ġd one
Ġ ent
a me
ff ee
n e
o c
j ust
Ġe l
Ġl ef
Ġlef t
Ġdrin ks
ar t
v iew
l ess
Ġk ind
t ing
lo y
w ill
Ġbre ad
n ice
Ġth in
Ġre s
Ġre view
a ri
Ġp erson
Ġel se
Ġdis h
on est
Ġyear s
u lar
Ġme at
Ġb la
Ġh is
i ful
s el
Ġl ast
Ġany one
Ġme x
Ġco ffee
Ġtast e
Ġtw o
f ore
t s
Ġto p
os e
Ġenjoy ed
Ġste ak
Ġc our
Ġs we
Ġn ow
Ġf ound
as y
h ow
Ġs at
al so
Ġk id
Ġbe fore
Ġro ll
Ġsm all
Ġd ri
an g
Ġp at
Ġmex ican
s a
Ġbe er
Ġemp loy
i mp
ad y
Ġt ook
Ġs oup
Ġd ec
Ġst u
Ġa way
Ġfriend s
over all
Ġattent ive
ut iful
Ġevery one
u ge
ate ly
Ġswe et
ul ous
Ġimpress ed
on t
sist ent
Ġm ar
r is
u the
Ġth ing
st aff
nt ic
uthe ntic
c ks
at ive
Ġtast ed
am azing
Ġman ag
Ġman y
Ġp r
p rice
Ġw o
Ġt ac
aw esome
Ġc as
Ġveg as
at o
Ġpleas ant
Ġl e
Ġoff ice
Ġre f
l i
Ġknow led
ou nt
sel f
Ġp ast
m ost
re ally
a v
wor st
Ġwee k
an ce
Ġplace s
Ġpar t
s u
Ġ :
red i
d el
wh ere
nd er
friend ly
v es
Ġbo th
l ot
Ġco ld
Ġt reat
Ġhot el
Ġthe n
Ġwait ress
Ġc ool
Ġth r
Ġch in
Ġs ur
Ġp oor
Ġbe a
ak ing
h orrible
en ix
it s
Ġw ings
Ġ rice
Ġu nder
Ġs c
Ġcom fort
Ġloc al
ic y
Ġany thing
Ġre g
stand ing
es p
Ġha nd
Ġde cent
Ġre p
Ġpho enix
Ġrecommend ed
Ġs low
an s
Ġre ce
b ably
Ġemploy ees
Ġaw ful
Ġa uthentic
Ġwh y
Ġcomp any
Ġm us
Ġa ct
b ur
Ġf in
n ing
u b
Ġchec k
ar m
ro ss
Ġp a
Ġcomp le
Ġsome thing
Ġwr ong
an ge
Ġsu ch
o pp
Ġh im
Ġfri es
Ġb it
Ġchin ese
Ġh igh
Ġh onest
Ġbe ing
Ġf l
Ġf ish
Ġn ail
r a
Ġfri ed
r oom
Ġc re
every one
ens ive
Ġh uge
Ġha ir
Ġinc redi
Ġh ard
m o
Ġc ooked
p ris
wh en
Ġdi ff
Ġmanag er
Ġbea utiful
Ġs oo
Ġprice d
Ġbla nd
Ġthe se
Ġto ld
Ġp ot
ious ly
Ġtri ed
x t
Ġthin k
Ġch ip
Ġne xt
o ice
d ing
Ġs ec
is s
Ġr un
Ġ z
Ġlook ed
Ġcon sistent
i re
Ġst y
eci ally
p ro
Ġch ea
Ġus e
Ġpor tions
ous e
Ġhour s
Ġit s
i ther
Ġl ea
ble m
Ġwal ked
Ġfe w
Ġcon t
Ġa ir
Ġe gg
Ġp ri
Ġp ay
Ġd ry
Ġto day
Ġexp ect
Ġf ree
esp ecially
b s
Ġpro blem
Ġkid s
Ġs erv
Ġwas te
Ġen ough
Ġa p
a ir
Ġlook ing
Ġre al
Ġqu ite
how ever
Ġknowled ge
Ġf ull
al ian
Ġwho le
Ġsur pris
t ed
Ġch oice
Ġit alian
Ġsal sa
Ġm edi
Ġe ff
Ġbe ef
o id
Ġto t
Ġg ave
Ġke ep
g ust
t en
Ġa v
Ġcomple te
Ġas ked
Ġown er
ig n
e y
Ġstu ff
Ġp ick
Ġcustom ers
Ġw ater
Ġdiff er
ri mp
Ġoff er
ar y
Ġdrin k
Ġcomfort able
Ġit em
b y
b ly
b and
Ġbus y
Ġm akes
us band
Ġs imp
iz ed
or d
Ġin side
b or
Ġf an
d ic
a le
Ġchea p
ough t
h ad
u p
del icious
Ġin ter
Ġdo g
Ġout standing
Ġop en
Ġfa ir
w ow
Ġ especially
at ch
Ġe nd
Ġsandwich es
Ġi ce
Ġt able
Ġw el
Ġm ust
Ġsa me
Ġbur ger
Ġsh ow
Ġc ut
Ġg i
Ġl ater
Ġs ide
Ġl ar
Ġdisappoint ing
f irst
Ġthr ough
in ce
ir ty
n ter
Ġth ings
fort un
Ġsal on
Ġsh rimp
Ġh usband
we ll
p tion
r it
ul t
ab les
Ġroll s
Ġknowledge able
is e
Ġco st
ion s
Ġw ine
c i
ct or
Ġte ll
lot te
Ġv al
Ġchip s
Ġl et
u al
ic ient
Ġex ce
oc re
ation s
er o
Ġl ack
Ġin to
o h
igh bor
Ġf re
Ġpot ato
ter rible
Ġchar lotte
en er
n y
Ġm on
Ġp ut
Ġcall ed
Ġe asy
Ġne ighbor
on s
Ġc or
Ġth ai
Ġdri ve
Ġdiffer ent
dic ulous
Ġt al
Ġy um
su per
Ġwh ere
u ly
Ġg em
Ġtac os
ab solutely
d ed
u ck
Ġin st
Ġact ually
me ll
gust ing
Ġlar ge
Ġp oint
Ġus ed
Ġv ari
fortun ately
Ġdish es
m m
g an
the se
Ġm ay
Ġb ag
ir l
ient s
g ers
Ġpro bably
Ġal most
Ġcl ass
Ġb as
Ġc ook
Ġh ouse
end er
g ative
w ould
Ġget ting
Ġd irty
Ġapp et
Ġdec or
Ġeff icient
all ey
Ġreg ular
h ood
Ġw arm
u gh
Ġsp icy
bo th
Ġc oup
Ġop tions
qu e
Ġp os
Ġp ie
el t
Ġbur rit
Ġs mell
Ġreview s
Ġs k
Ġgr oup
ar ly
p l
Ġp ol
Ġwi fe
Ġv alley
Ġli fe
a fter
Ġmon th
i o
Ġwh ile
ver s
iz e
Ġmedi ocre
Ġitem s
Ġg irl
Ġbu y
f i
i ved
a red
p e
Ġwor se
Ġam b
Ġpro d
Ġneighbor hood
bur gh
n ever
Ġf ill
Ġg ener
ed ic
Ġwait ing
Ġfr ont
Ġe ither
Ġrestaurant s
g et
Ġdin ing
itt s
Ġl ess
i ld
as h
Ġrece ived
Ġb l
Ġtri p
itts burgh
p ort
Ġspecial s
Ġcour se
et y
Ġv i
Ġeat ing
Ġneed s
Ġmus ic
ur ch
the n
Ġlea ve
Ġst and
Ġcre am
Ġdo ctor
Ġpr om
Ġp ittsburgh
Ġval ue
Ġappet iz
Ġac com
g ot
Ġs ince
age ment
Ġz ero
Ġst op
a th
Ġsty le
Ġw ish
i que
or ry
Ġent ire
g o
Ġbr ing
e ven
Ġcomplete ly
Ġb ro
ri ll
ian ce
Ġdeli very
Ġbu ff
c ome
Ġt ea
Ġst r
Ġthough t
Ġbar t
er y
Ġlook s
Ġs et
Ġwork ing
Ġperfect ly
s h
ver age
Ġs ch
Ġp ack
Ġvari ety
Ġair port
Ġg ar
m ber
Ġar ri
Ġs l
us h
Ġget s
Ġext ra
w ent
Ġcl ose
d y
ot t
Ġwait er
Ġapp oint
no thing
Ġli ve
i ly
Ġon ce
al f
Ġt on
it ive
la x
ex t
Ġb ill
un fortunately
Ġbur gers
is on
ess ert
Ġdis gusting
Ġm ess
Ġl ist
ce ss
Ġday s
l ish
Ġover all
Ġserv ed
Ġyum my
g ar
w ard
Ġri diculous
Ġus ually
Ġexp ensive
Ġf elt
Ġb ak
Ġm ad
Ġl as
Ġv iew
Ġcr ow
b r
an c
Ġwant ed
Ġappoint ment
Ġd ress
Ġse ver
Ġli ked
Ġsu pp
y ond
Ġa ff
Ġveg et
Ġout side
Ġnail s
ert ain
la in
Ġres p
Ġle ast
w ait
Ġg ross
Ġl ate
Ġre lax
Ġsat is
Ġwith out
Ġflavor ful
Ġsec ond
Ġt urn
for m
Ġtot ally
Ġnot ch
Ġaff ord
t i
ou nter
lo ved
Ġincredi ble
mo d
Ġsoo n
s ome
Ġtr uly
b q
Ġn or
Ġph one
Ġman agement
l ic
id d
Ġt ables
Ġm iss
Ġh o
Ġi nd
Ġh alf
Ġd essert
Ġcom es
Ġpor k
Ġaccom mod
w o
Ġwel com
Ġg one
Ġsu b
is p
Ġa verage
app y
Ġown ers
el s
Ġcr isp
la ce
al th
Ġse ason
Ġf ix
Ġun ique
Ġf ine
Ġbe yond
Ġl ine
Ġat e
Ġsp a
m ade
Ġcont in
Ġcr ust
c c
p re
Ġbe l
Ġpleas ed
as e
Ġb bq
Ġl ight
u ct
Ġg y
Ġex c
f t
s i
m an
Ġad d
Ġpast a
Ġd ent
ou th
Ġatt it
Ġafford able
w as
at es
om en
ur ing
Ġbe ans
opp ed
ll ar
Ġl a
o lo
s er
Ġwait ed
Ġg l
Ġ ce
Ġt y
Ġm ist
el ess
Ġemp ty
Ġpre p
Ġseem ed
N e
Ġl ow
Ġdeli ver
Ġreturn ing
Ġsome one
Ġsever al
Ġs it
Ġe ach
i a
Ġexce ption
ce pt
w onderful
Ġy elp
Ġm ain
Ġbr ought
opp ing
Ġ est
um m
Ġ ;
o ve
ut s
Ġamb iance
d r
Ġg rill
Ġwas h
ast y
ie ve
Ġw ed
Ġs ad
Ġfin ish
Ġprod uct
Ġw atch
Ġap olo
Ġbuff et
c y
Ġn ood
pro fessional
g in
Ġb oy
it ed
Ġde p
room s
k et
Ġwal k
Ġso l
Ġdo ing
Ġl ady
f antastic
at ter
Ġd oor
price d
it as
Ġok ay
Ġch ange
p leas
te ous
Ġsimp le
re ci
price s
red ients
Ġin g
Ġmad ison
o k
Ġconsistent ly
Ġsurpris ed
c o
Ġtw ice
Ġbel ieve
n ed
Ġpro v
Ġd ate
Ġlot s
it ion
v ent
Ġapp reci
Ġserver s
Ġp urch
Ġc ur
Ġto m
Ġincredi bly
Ġs ign
Ġr a
u d
Ġc ard
Ġattit ude
le t
ir d
Ġneed ed
Ġhand s
Ġburrit o
av oid
Ġm or
Ġc ute
or y
Ġgu ess
Ġf ac
Ġen v
Ġthan ks
Ġseem s
Ġmist ake
Ġre me
Ġgre et
Ġth ree
Ġing redients
ent y
Ġprom pt
s p
g r
Ġm aking
Ġke pt
Ġas k
Ġstar t
Ġs ize
Ġab ove
Ġsh ort
Ġcour teous
ll ow
Ġveg g
Ġd uring
id es
Ġtac o
Ġenv ir
Ġ 1
Ġn ame
on ment
n ch
Ġag o
ri p
ne ed
Ġpla y
pre tty
Ġenvir onment
Ġquick ly
b ad
c ooked
Ġelse where
Ġb ed
id er
Ġ- -
Ġchar ge
it ch
Ġan n
Ġinter est
Ġsu nd
Ġapolo g
oo n
Ġreason ably
Ġown ed
Ġpor tion
Ġb ath
Ġcl os
osp it
Ġpa id
d is
oo th
Ġfa b
Ġcon s
fi ed
t oo
Ġre cent
Ġhapp en
Ġpar king
are ly
art ment
e ad
Ġha ving
Ġaccommod ating
Ġpie ce
Ġch ang
wh y
Ġwelcom ing
Ġh ospit
Ġcom m
e w
t il
o ke
Ġse en
Ġdisappoint ment
d id
m ore
Ġlo ves
Ġar t
Ġin form
Ġse ating
y e
Ġsalad s
Ġse a
Ġthan k
Ġte am
un g
Ġor gan
ab lish
Ġd on
it er
Ġpol ite
us ed
ke ep
l or
Ġtry ing
Ġest ablish
l ine
pp ed
c ing
c on
Ġp ool
hi p
Ġchoice s
Ġof ten
Ġt aking
Ġh ate
Ġp ass
Ġo il
ri ght
Ġsu cks
air s
Ġreme mber
Ġpl us
Ġs mi
Ġc ounter
Ġav oid
Ġarri ved
ic al
s uch
Ġti p
Ġsal es
Ġgre en
Ġfin ally
ent ion
are nt
Ġestablish ment
s w
Ġh it
need less
per fect
Ġsol id
th ers
Ġj oint
Ġtreat ed
Ġlo st
Ġdo llar
Ġroom s
Ġweek end
Ġcoup le
Ġmor ning
Ġb ow
Ġm om
ch i
z on
Ġam ount
Ġton ight
Ġj u
Ġne gative
Ġun til
Ġqu est
Ġtast es
Ġ %
Ġbow l
Ġth ose
Ġhe alth
idd en
Ġeat en
Ġm ention
Ġy et
Ġan sw
Ġhelp ed
Ġcon f
wor th
n ess
oo t
or der
Ġit self
Ġgre asy
m ay
Ġca ke
ex p
Ġp res
Ġc al
or ough
Ġpack ed
Ġre d
ar k
Ġst re
Ġpat ient
Ġprep ared
Ġc le
Ġe m
Ġpar ty
Ġdis c
Ġpat io
Ġme m
Ġtr ust
in es
Ġsp end
Ġun professional
Ġsund ay
u nd
al s
et s
id ed
Ġwor ks
Ġexception al
Ġmy self
Ġmar gar
it a
ec tion
com p
t r
Ġs on
Ġre nt
Ġbe h
Ġbr unch
Ġfab ulous
Ġsmi le
Ġb other
Ġte ch
Ġter ri
Ġmo ved
g n
ur day
Ġpl ate
st ill
ant ly
Ġsp r
Ġfac il
Ġsh opping
Ġdes k
Ġhe ll
Ġfre nch
Ġm ac
Ġl ou
Ġp anc
Ġf act
Ġpotato es
Ġcar ing
Ġmeal s
Ġpos si
Ġunder stand
Ġth orough
c lean
Ġsp e
Ġp edic
Ġc ity
ne w
f resh
Ġeven ing
Ġinc l
Ġh ost
Ġtr ue
b u
en omen
Ġd ro
Ġco lor
enomen al
end ers
Ġsat urday
re ct
Ġlo b
Ġvi be
may be
Ġst rip
Ġgar lic
t ot
il i
Ġsimp ly
Ġmus h
Ġp ain
i or
Ġappetiz er
Ġgl ass
b v
Ġch ain
Ġhow ever
en joy
itt ing
c ustom
f ic
Ġs orry
ull y
b re
ill s
Ġorder ing
Ġb ook
Ġst o
Ġwed ding
Ġout d
pro bably
Ġbart ender
p ar
ac on
Ġany where
Ġover priced
ugh ter
i et
Ġr an
Ġor d
Ġsea food
Ġh ang
Ġh idden
Ġcontin ue
zon a
h appy
Ġm ass
ou ch
Ġstay ed
Ġegg s
re ady
at s
Ġsatis fied
a ughter
d s
f r
Ġab solute
Ġwee ks
custom er
lot s
iter ally
m on
Ġd ive
Ġcr a
Ġnood les
re es
Ġpe pp
ic ally
ti me
Ġal ready
Ġad v
Ġfri day
Ġprice y
ai la
Ġt a
Ġh ung
Ġg lad
Ġne ar
Ġsl ice
Ġav aila
Ġa ri
Ġari zona
Ġre qu
Ġservice s
az y
Ġmonth s
Ġstre et
all s
gg est
bo dy
Ġcrisp y
ore d
Ġansw er
Ġme an
Ġdog s
Ġmay be
Ġsch ool
Ġb arely
Ġre ady
um p
ec k
z en
Ġbe ers
Ġcr ab
Ġcr ap
ir th
Ġsu ggest
Ġser ve
chi lad
Ġd et
Ġin s
Ġyour self
Ġhair c
Ġknow s
Ġser iously
Ġcons ider
Ġo thers
an other
Ġpl enty
c ked
Ġb irth
Ġt ort
Ġh op
Ġd aughter
st er
Ġgo es
pl us
ser iously
Ġco nd
b ers
y es
Ġwor ld
Ġavaila ble
Ġdet ail
r al
Ġtot al
Ġw ar
Ġb acon
Ġpro per
cept able
Ġb ott
Ġch ild
Ġsal ty
Ġinst ead
Ġph enomenal
ic ular
Ġan im
Ġhome made
Ġoffer ed
Ġgener ous
i ke
it ing
an e
om et
Ġtom ato
Ġbeh ind
Ġqu iet
Ġtast eless
Ġen chilad
on ly
Ġe ar
Ġcon ven
Ġpart icular
Ġdent ist
Ġpanc akes
Ġbirth day
re w
Ġi de
p oor
u in
Ġrecent ly
Ġch ef
Ġboy friend
Ġi mm
Ġc ertain
Ġs our
Ġs ing
Ġs ick
ak en
Ġtal k
or n
Ġgy ro
i red
u res
Ġr ush
Ġfeel ing
Ġn um
Ġto ast
Ġord ers
Ġst ick
Ġexperience d
d ale
Ġg if
Ġfill ing
Ġhospit al
Ġres erv
z y
Ġsuper b
Ġt ender
Ġse ated
Ġattent ion
p h
Ġo cc
Ġra ther
g ed
Ġstar ted
Ġpr act
Ġinterest ing
Ġcomm un
Ġt aken
i th
Ġexperience s
wh ile
Ġsc ot
Ġn asty
Ġlove ly
am es
Ġfl oor
exp ensive
ts dale
Ġturn ed
Ġt akes
Ġm ix
Ġhe ad
Ġperson able
itch en
in o
Ġtast ing
Ġpos itive
h onest
oo se
Ġcas ual
Ġdon uts
Ġm a
Ġop tion
f un
Ġf low
Ġb ite
Ġnot ice
ad a
Ġk itchen
ol i
Ġexp lain
Ne gative
u ff
an k
Ġe ye
Ġre ad
oc ol
Ġflavor s
Ġfacil ity
b ig
p lace
Ġp ic
gg y
Ġf o
Ġst opped
ow nt
li ke
Ġpri cing
Ġgi ven
Ġpedic ure
Ġincl u
ownt own
Ġh or
Ġd owntown
Ġch ili
pleas e
bv iously
is ter
Ġam er
ill a
Ġup s
Ġty p
Ġscot tsdale
n am
Ġt ouch
Ġm il
Ġd am
Ġpl an
i al
Ġs itting
Ġf ro
Ġdress ing
Ġann oy
Ġe qu
Ġre m
Ġex act
Ġbut ter
and s
Ġi gn
en ny
Ġin v
ust r
Ġr ating
Ġtr ain
Ġbak ed
bu cks
Ġo ri
Ġbag els
Ġstand ard
ur s
Ġp op
en se
Ġsa us
Ġch ocol
order ed
Ġd ou
it es
Ġwel come
g able
f y
h is
ut ure
ea h
Ġpleas e
Ġop in
l er
s ad
Ġcrow ded
Ġdeliver ed
Ġhairc ut
m ing
p or
Ġf uture
Ġ 2
Ġa z
ge ther
Ġc up
Ġso ggy
il ed
Ġcas hi
s orry
y s
Ġe arly
Ġsp ent
Ġcl ub
Ġbo x
Ġconven ient
Ġc u
at t
am b
Ġmin s
Ġsm ooth
b ea
Ġch ance
Ġlou d
Ġrequ est
Ġe vent
Ġfor ward
Ġstar bucks
Ġenjoy able
Ġvisit ing
t on
Ġl ad
Ġdel ight
Ġproduct s
Ġlad ies
Ġc ount
Ġm all
Ġwi nd
Ġas s
Ġperson al
Ġimp ort
Ġdes ert
Ġknowled gable
Ġopin ion
r ude
Ġg ame
Ġm et
ve l
Ġwh ite
Ġcertain ly
Ġveget ari
Ġca b
Ġover cooked
Ġbart enders
Ġimm edi
Ġmin ute
w ise
Ġc lo
umm er
Ġchocol ate
e at
Ġo me
Ġpossi ble
Ġa ut
Ġfr ustr
Ġterri fic
Ġpepp er
Ġc reat
it ies
ol ks
Ġl u
ast er
Ġsp ice
ort s
Ġrelax ing
Ġgrill ed
s ue
it ional
Ġany more
ment s
ca me
Ġf ore
Ġve t
Ġcrow d
Ġorgan ized
w ith
Ġm ind
la m
Ġfun ny
Ġgi ving
Ġdollar s
ar a
Ġpla in
com fort
Ġhe ar
bea utiful
Ġl iterally
Ġis sue
Ġr ate
Ġocc as
s imp
Ġa ble
Ġto pp
Ġin expensive
Ġon ion
Ġdin er
Ġi m
Ġto gether
Ġbe ll
Ġsal mon
u es
Ġw onder
Ġf our
is c
Ġen g
Ġlong er
h ill
Ġs ent
or ge
Ġon line
Ġcon c
Ġsurpris e
d on
Ġw in
Ġch oose
est er
Ġri bs
Ġend ed
Ġgreet ed
dis appoint
Ġhealth y
Ġfro zen
o le
arent ly
Ġimmedi ately
wh ich
Ġpar k
Ġlack ing
Ġwork ers
Ġsay s
ext remely
Ġsaus age
Ġtr ad
Ġcor rect
Ġvegg ies
Ġpract ice
Ġgirl s
Ġdisc ount
la int
ac ular
ro c
ect acular
Ġce nter
Ġmass age
t ail
ul ts
Ġspa ce
Ġcomp laint
Ġac c
Ġhappen ed
Ġfo llow
l ist
p izza
Ġf olks
ent ed
Ġco ll
Ġco zy
Ġexpect ed
r u
in c
Ġin t
et ent
Ġwr ite
Ġseason ed
Ġbu ild
Ġsch ed
Ġspr ing
Ġlob ster
Ġs outh
un a
Ġstr ong
Ġappreci ate
Ġyou n
Ġpro cess
Ġro ck
Ġcur ry
h ave
Ġwork ed
Ġclass ic
Ġs ou
Ġme et
b el
f ection
Ġg ard
ch eck
Ġdown hill
Ġpleasant ly
Ġide a
comfort able
Ġm ach
Ġm outh
ri es
Ġr uin
Ġoutd oor
Ġsa w
Ġpurch as
Ġquest ions
Ġm ight
im es
Ġexact ly
ap an
Ġrep air
Ġs ides
Ġre mo
Ġchang ed
f in
ke y
Ġsp ectacular
Ġent rees
Ġpiece s
Ġt v
enu ine
omet imes
Ġca fe
Ġburrit os
Ġwind ow
re n
Ġri b
Ġbath room
Ġhung ry
Ġamer ican
t ic
in ks
Ġb ought
ent le
Ġj apan
Ġmar ket
p m
um bs
im ate
Ġexpect ations
Ġg enuine
Ġsh o
Ġsto res
Ġsing le
n a
Ġp et
Ġfa ce
k y
Ġd ip
Ġwe ird
Ġro cks
Ġac ross
Ġmargar itas
tot ally
b ar
g ross
Ġs ummer
Ġl uck
Ġcomp lain
t wo
Ġg entle
ac ceptable
Ġfavor ites
Ġchec ked
Ġkid ding
Ġcost s
g u
h er
on ce
Ġsoo oo
r ow
Ġl ay
Ġbe gin
b a
Ġte mp
Ġju icy
Ġfore ver
h uge
Ġw all
be en
Ġappetiz ers
Ġnor m
Ġvegetari an
as ily
Ġre c
Ġst ale
li able
av y
Ġfair ly
b age
an a
Ġk new
Ġsupp ort
r ong
om an
Ġas ada
Ġemploy ee
Ġs y
Ġas ian
Ġse ll
Ġdeal s
Ġref und
Ġpurch ase
Ġhost ess
w are
Ġp ost
Ġbr own
Ġwr ap
edi ble
Ġpay ing
b ack
Ġs ound
Ġsp orts
oc ked
Ġsty list
Ġexc ited
a mp
c ri
Ġsu cked
Ġap artment
Ġbag el
fin ally
Ġt re
la nd
Ġsa fe
os ed
ain ed
Ġad ded
ile t
Ġn one
orge ous
Ġf oot
Ġbre w
Ġgu est
Ġbla ck
Ġcor n
Ġproblem s
Ġfre qu
Ġbak ery
b in
Ġfood s
Ġome let
Ġyoun g
Ġjapan ese
a ven
Ġm atter
Ġflavor less
Ġchec king
Ġnum ber
Ġe t
Ġsh ame
Ġsp in
Ġclean ing
Ġchild ren
Ġtopp ings
b t
g i
Ġapp ro
Ġle vel
m art
ie v
wor k
bel iev
Ġnice ly
Ġv en
Ġus ual
Ġri p
Ġgard en
c ar
h ouse
in k
Ġshow ed
Ġdessert s
Ġhe art
Ġresp ect
t uce
Ġw oman
Ġtime ly
Ġcomp li
Ġdeal ers
bur ger
t ry
Ġb ri
on i
Ġdri ver
Ġclos ed
Ġcle arly
Ġw ow
Ġp ub
st ay
de cent
Ġjo ke
Ġspot s
l ing
ut ral
Ne utral
Ġinform ative
Ġran ch
Ġfrequ ent
Ġt ur
ing ly
ac y
Ġch ew
Ġman ic
Ġmo ve
Ġdec ided
id ent
Ġgr ab
Ġreturn ed
Ġent ertain
Ġsteak s
Ġinst all
Ġveget ables
Ġspe ak
k es
Ġ cent
or able
Ġha m
Ġco ck
Ġapp le
Ġty pe
Ġven ue
3 0
h ic
i er
ri ed
Ġwor d
Ġdep artment
er g
the tic
Ġt ough
is ed
Ġrep lace
Ġfix ed
Ġbuild ing
n ic
Ġw aff
Ġs ense
in s
en cy
ill as
Ġco ver
Ġref ill
Ġsmell ed
Ġind ian
Ġper fection
Ġlet tuce
Ġy e
Ġso ft
Ġun less
Ġve hic
t a
Ġp izz
Ġmo der
gin al
er ve
Ġo bviously
or k
Ġcar ne
Ġsal t
Ġet c
ain t
red it
ree k
r ist
y al
Ġf ive
Ġp ad
ak i
Ġus ing
h op
n oon
Ġs qu
Ġc redit
Ġal ong
Ġflow ers
Ġcashi er
Ġh y
now led
Ġun comfortable
Ġcar s
Ġbe at
ant s
Ġsh ot
os itive
Ġup d
con sistent
Ġdam n
Ġmo v
Ġcas h
Ġrun ning
Ġexc use
Ġvegg ie
t ook
Ġt una
Ġm ine
Ġre liable
Ġbu cks
Ġcont act
b all
b ert
Ġf it
Ġf il
ic s
Ġj ew
Ġclean ed
Ġgif t
s m
re am
Ġti re
ber ry
Ġfl at
g re
Ġn a
st e
Ġor ange
Ġafter noon
Ġcas e
Ġpoor ly
Ġho le
Ġf urn
Ġp ull
pp ing
Ġpa per
Ġset ting
don al
Ġruin ed
Ġs w
Ġthr u
Ġign ored
p ri
or ing
Ġcr azy
Ġref used
Ġgy m
c an
c donal
in y
Ġg roc
ter s
Ġhe aven
Ġlocation s
Ġmedi um
P ositive
l ast
Ġg el
Ġtr ash
Ġnight s
Ġpri me
Ġrelax ed
Ġdealers hip
d d
Ġb on
Ġn y
Ġgu ac
fr om
la w
Ġqu es
Ġpat r
Ġvi et
Ġanim als
u it
w rong
Ġg orgeous
Ġfl ight
t z
Ġt our
Ġm en
Ġd ark
Ġcom bo
Ġgot ten
Ġbuy ing
d a
l ook
Ġwal king
Ġho ld
Ġappreci ated
Ġ ur
Ġle g
Ġamb ience
ch an
Ġon es
Ġdoctor s
Ġdent al
Ġcock tail
Ġpizz as
Ġthe ater
at ure
Ġne at
other wise
Ġh oney
Ġd ough
it ure
Ġpleas ure
any way
ra ight
u le
Ġc at
Ġm cdonal
ot e
per s
Ġgr and
Ġfan cy
re t
Ġb en
Ġb an
ch icken
out standing
Ġtr ave
Ġsupp osed
Ġreserv ation
Ġinv iting
c ool
o f
la y
nam ese
sad ly
i v
Ġ er
Ġo h
Ġr ings
Ġen c
Ġselection s
Ġro ast
b ec
Ġh i
Ġo per
Ġst ation
Ġas sist
Ġvisit ed
Ġpl ates
Ġinclu ding
ester day
Ġto w
Ġch airs
Ġsh ut
Ġdes erve
Ġpres ent
Ġpic t
c le
f am
p ect
f ully
Ġf at
Ġt ap
Ġal one
Ġal ter
ag es
Ġimpress ive
Ġserv ing
Ġtal king
Ġviet namese
Ġb ab
Ġr are
Ġli m
Ġimp ro
Ġdes erv
Ġjew el
Ġfurn iture
Ġb ike
Ġm is
Ġfa m
Ġsome where
Ġgr oom
Ġsec tion
Ġfill ed
Ġaut o
j or
Ġw ont
Ġwi de
Ġr ub
Ġori ginal
Ġ ed
Ġb un
Ġd ie
ri diculous
Ġme chan
qu ick
Ġun acceptable
ag ain
ai ly
Ġgi ves
Ġprod uce
Ġgener al
l ive
Ġb isc
Ġg reek
Ġpick ed
Ġsmell s
Ġspin ach
Ġfr y
ag o
Ġm ic
Ġd ont
Ġth ick
Ġstay ing
Ġcook ies
Ġlist en
u its
Ġe ast
Ġfa j
Ġsm il
bre ad
w al
al o
Ġst raight
Ġse at
Ġwill ing
Ġman ner
Ġpar m
Ġfinish ed
or ies
Ġd ine
ant ic
Ġv ac
Ġcond ition
Ġenchilad as
u ation
Ġa ck
is ion
Ġst ate
Ġwith in
Ġan g
Ġcon vers
Ġnight m
Ġent ree
wait ed
Ġpurchas ed
Ġack nowled
c r
Ġs un
Ġf all
Ġveg an
Ġatt end
Ġgr ound
Ġref er
Ġinter ior
Ġnotice d
fam ily
b b
f er
Ġre l
Ġsoup s
Ġcre w
Ġconc er
Ġtrad itional
Ġd aily
ac ious
Ġcom bin
Ġde ep
Ġview s
Ġmem bers
Ġglass es
f ish
g est
i y
Ġp o
Ġbe come
Ġfor get
Ġy es
Ġch ic
Ġsu bs
Ġres ults
simp ly
iy aki
s at
Ġs n
Ġch ill
Ġas king
he ad
Ġbl ue
comp le
Ġtyp ical
Ġlim ited
Ġw est
Ġfor got
Ġsh are
am ole
wh el
Ġbath rooms
lam ari
h a
Ġd ue
Ġe le
ate ver
Ġfeel s
Ġchar ged
Ġsauce s
Ġres ort
Ġla id
Ġrush ed
sm all
Ġb atter
Ġvisit s
Ġbro th
Ġmiss ing
Ġcu is
Ġp iss
Ġgo d
Ġri de
Ġde ad
Ġz oo
honest ly
Ġchew y
Ġmanic ure
ce d
Ġch urch
Ġlo yal
ec c
Ġr om
Ġbas ic
Ġg ames
un k
Ġgo ld
Ġsc r
in a
as hi
Ġbe low
us ch
Ġmain t
Ġdou bt
Ġtur key
usch et
a my
s ec
Ġsh it
Ġse ats
Ġcount ry
Ġcompli ment
Ġmoder n
comple te
Ġt en
ore an
Ġice d
er ry
Ġne arly
Ġsa mp
Ġti res
Ġdes ign
the s
Ġc akes
or gan
Ġd ef
Ġl em
Ġst ory
Ġy esterday
Ġph arm
Ġmost ly
Ġcle ar
comp etent
Ġhop e
Ġcuis ine
t le
Ġi r
Ġn ach
Ġcon st
sel ves
Ġref resh
Ġrece ption
Ġhonest ly
Ġh ur
Ġter iyaki
Ġmeat s
su es
Ġgirl friend
Ġhor ri
a ther
Ġs le
Ġt ext
ir t
Ġcr appy
Ġreg ister
Ġshow s
Ġstr aw
Ġmargar ita
Ġremo del
believ able
Ġnightm are
on se
Ġis sues
sol id
Ġpat ients
Ġcoup on
Ġcommun ic
m ed
w ai
Ġh um
Ġh ol
Ġwas ted
Ġha wai
Ġbe an
op s
Ġbur nt
Ġbit es
Ġcook ing
Ġgar bage
Ġsit uation
Ġprov ide
ecc able
h ands
in i
Ġm edic
Ġsm oke
ues day
Ġmov ie
uschet ta
re ason
Ġm el
ar s
ion ate
Ġsa ve
if orn
Ġbu d
ount ain
umm us
Ġquest ion
bre ak
Ġcommun ity
iforn ia
f a
or s
ow s
Ġqu aint
Ġexce pt
Ġresp onse
dis gusting
Ġenchilad a
Ġdelight ful
Ġclo thes
Ġguac amole
break fast
Ġb oring
Ġp an
Ġch rist
Ġca p
Ġinc on
Ġdes cri
Ġimport ant
Ġcomplaint s
Ġvehic le
Ġn urs
Ġth umbs
Ġgood ness
Ġk orean
ther n
Ġhe ard
Ġtr ans
Ġgroc ery
a uthentic
e mp
e ach
th y
Ġsp l
ond ay
ip le
Ġpol ish
Ġtort illas
k en
n one
t op
Ġ #
Ġsatis fy
Ġprov ided
Ġapolog y
Ġem ail
Ġma jor
inc redi
Ġmaint ained
organ ized
r act
Ġh ill
le br
Ġr av
am ed
Ġcar p
Ġhard ly
Ġlem on
r ass
y eah
Ġp ita
Ġgroup on
Ġchic ago
n ext
o ff
re commend
ll y
Ġwi fi
we en
ress ed
Ġsay ing
Ġwatch ing
c ould
n ers
u c
Ġm idd
Ġst ocked
el f
ist s
te mp
Ġbr and
Ġimp eccable
Ġkind a
Ġcal ifornia
Ġconvers ation
p a
s low
ac tion
Ġgo l
Ġca lamari
Ġgr avy
cc oli
Ġrent al
Ġannoy ing
Ġoccas ion
Ġrefresh ing
iz es
f u
Ġs ometimes
Ġt iny
Ġsa m
Ġcomp ass
Ġcr unch
wait ress
Ġannoy ed
consistent ly
Ġf ire
Ġg as
Ġl ear
ic ult
Ġin competent
Ġhelp ing
Ġac cess
Ġmo ving
Ġwaitress es
Ġinter n
Ġla ugh
Ġnood le
Ġexplain ed
Ġups et
s oo
Ġt uesday
Ġon ions
Ġso da
Ġr ot
Ġdel ish
Ġpre v
ash ed
pleas ant
Ġproper ty
Ġpharm acy
c l
Ġs end
Ġp m
ot le
el d
Ġste p
Ġce lebr
tr uly
w ish
ur ance
Ġfr uit
Ġshop s
Ġstuff ed
ult iple
Ġsk ill
Ġadv ice
Ġfaj itas
Ġf ilet
Ġb le
if ic
Ġim ag
nic ian
Ġrom antic
sec ond
c all
h n
Ġb ooth
ed y
Ġe asily
Ġjo e
Ġjo hn
Ġbet ween
Ġbuff alo
Ġgol f
i vers
Ġs izes
Ġri ch
Ġbro ccoli
ward s
Ġins urance
Ġconsider ing
y um
Ġ 5
Ġr ound
Ġag ree
Ġoff ers
Ġdiff icult
Ġbab y
Ġnach os
Ġw omen
Ġp ush
Ġh ist
Ġevery where
Ġbar s
Ġbr uschetta
ip ment
Ġrece ive
bar rass
Ġguest s
Ġrav i
d in
Ġp enny
Ġdis aster
Ġcar ry
Ġro ad
Ġsm o
Ġsched ul
a x
a ce
e asy
r ant
y our
Ġ 3
Ġb right
Ġh ummus
ur ity
gh et
Ġca res
Ġbig gest
Ġbro ken
Ġmidd le
h ot
Ġy eah
pp y
Ġstu d
Ġref ills
Ġcre amy
Ġpri or
Ġstand ing
Ġtech nician
Ġpull ed
s al
in st
in ary
ic a
Ġall ow
app arently
Ġhe at
ag er
Ġcomp et
Ġent er
Ġcas ino
pe ople
Ġtomato es
Ġfrustr ating
s ave
Ġs um
Ġsa le
Ġfa il
Ġfa ult
Ġrecommend ation
Ġap art
ten ance
Ġem barrass
disappoint ed
i ed
Ġm onday
Ġto fu
st em
Ġch e
ust ard
Ġperson ality
sh ame
Ġnor th
Ġanim al
Ġsy stem
Ġo live
Ġm other
Ġch ose
ill y
Ġloc ated
bur gers
Ġchip otle
Ġlea ving
Ġdro p
Ġproper ly
Ġenc ounter
l iness
Ġh ar
Ġy ork
Ġdis t
Ġsee ing
Ġsc rew
Ġcor por
Ġadd ition
dr inks
Ġdro ve
tot al
Ġbott om
Ġpresent ation
Ġc ustard
Ġbl ood
Ġmix ed
Ġdeserv es
ashi mi
Ġhawai ian
ghet ti
d i
m in
Ġb urn
Ġcl in
Ġbo ard
Ġbea ut
Ġequ ipment
th ough
Ġm ed
Ġm ag
Ġm ultiple
ec ake
do es
ton ight
Ġcreat ive
Ġpiss ed
a la
Ġf ig
ca le
Ġcra ving
Ġmach ine
Ġsn ack
i mi
Ġm use
Ġk ick
Ġopen ed
Ġlack ed
Ġbas ed
Ġmuse um
h elp
Ġsa ved
qu ality
Ġhas h
Ġcut s
Ġgroup s
Ġthorough ly
Ġint imate
Ġjewel ry
i ble
t ried
Ġm ot
Ġth rew
om ach
Ġli ved
and y
Ġfe ll
Ġun fortunately
Ġph ot
Ġsou thern
Ġp ets
Ġl ines
Ġun happy
Ġtal ked
Ġsk ills
Ġ edible
om g
Ġst omach
Ġsp acious
Ġsl ight
Ġseason ing
Ġgyro s
Ġbon us
Ġsle ep
emp loy
d es
Ġa head
Ġr ing
ag na
Ġapp arently
Ġtake out
Ġwal mart
ash ion
Ġbed s
Ġparticular ly
f ound
Ġ ult
Ġch ow
Ġr ange
Ġover ly
fri ed
Ġthin king
Ġsurpris ingly
Ġgenuine ly
Ġbisc uits
t asty
Ġn on
Ġli ving
se em
Ġchees ecake
Ġchar g
Ġlocal s
Ġmush y
l ight
n es
at mosphere
or m
Ġti red
Ġte ach
Ġgre ens
Ġtreat s
Ġmush rooms
Ġtext ure
Ġcorpor ate
j un
Ġs ashimi
Ġd im
ast e
end erson
Ġar r
Ġexp ress
Ġold er
Ġapolog ized
Ġeng lish
Ġlay out
Ġintern et
Ġravi oli
l ong
Ġt ons
Ġp edi
Ġc ig
Ġal right
Ġun friendly
Ġbar ber
be at
Ġsoo o
Ġinst ru
Ġconf used
Ġtort illa
Ġwar rant
Ġtemp e
Ġclin ic
b ed
Ġh enderson
so ci
ous y
Ġfa re
Ġk ill
Ġcall ing
Ġmo ist
Ġcour t
Ġthrough out
Ġgener ally
Ġlob by
g s
m as
s ure
Ġb unch
en o
Ġd an
and a
Ġcall s
ap e
Ġstu ck
Ġpast ries
Ġhigh er
Ġbas ically
Ġju ice
Ġques ad
o b
Ġp arent
ed ed
Ġl azy
ut en
ich a
Ġspa ghetti
Ġslice s
Ġanswer ed
urs day
employ ees
s ur
Ġp ress
ll o
complete ly
re al
Ġp ump
Ġm ashed
st opped
et ch
id ay
Ġwh atever
Ġfresh ly
Ġsec urity
Ġexpect ing
gust ed
Ġcoll e
k ind
Ġs ized
Ġt ick
Ġc ow
os si
wh o
Ġpre fer
Ġrep eat
Ġmac ar
Ġbott le
Ġfil thy
Ġcombin ation
Ġcommunic ation
a use
ar ch
ur se
Ġtreat ment
Ġrem ind
bec ause
Ġhol iday
Ġsatisfy ing
m ar
Ġh ut
st ick
st airs
Ġch at
so ever
Ġwhat soever
Ġcl ient
Ġdiffer ence
Ġclass y
Ġlas agna
enjoy ed
Ġta x
Ġtrain ing
Ġsched ule
Ġsho es
Ġprev ious
ll s
Ġd uck
um b
se e
Ġcon sist
Ġbo ba
Ġchea per
Ġmain tenance
Ġmom ent
g ive
o d
p id
Ġt est
ot ed
ut ion
Ġat temp
Ġj ack
Ġsp oke
lo c
Ġtr uck
Ġstu pid
Ġrece ip
Ġresp ons
Ġprompt ly
disappoint ing
Ġconcer n
u ed
z z
re st
Ġf ashion
is m
Ġth ursday
ar n
ad o
Ġme ans
qu ite
Ġup gr
Ġexp l
to day
Ġcard s
Ġinform ation
Ġreplace d
inst ead
b alls
s ushi
Ġf ly
Ġb al
Ġch ile
Ġwait ers
Ġsome what
Ġgl uten
Ġoutd ated
Ġinclu ded
Ġmil es
Ġpepper oni
Ġ ut
Ġm id
Ġl at
Ġas soci
Ġdis gusted
hi b
Ġper form
Ġbo dy
Ġfind ing
Ġpossi bly
wal ked
Ġencounter ed
w arm
Ġs ister
re ad
ri c
Ġin sp
Ġgreat est
ur a
ad ed
Ġme mber
Ġfe e
ip s
Ġgre ase
Ġdri ving
Ġmem orable
Ġlu ke
pers on
Ġ ver
Ġw alls
Ġm art
Ġd efin
Ġdes ired
Ġact ual
Ġequ ally
Ġshut tle
Ġchrist mas
u red
Ġthe at
Ġt ar
Ġc ater
Ġal though
if e
Ġclass es
pl ant
Ġnear by
Ġtrave l
Ġa while
Ġc ant
Ġh oo
Ġm uff
Ġch amp
res pect
Ġany time
Ġnorm al
Ġnorm ally
Ġcover ed
Ġye llow
l unch
Ġw ax
Ġex hib
Ġdis p
Ġcr ack
erg y
Ġrub ber
fa vor
Ġslight ly
e th
Ġd ream
Ġsh ady
ain s
Ġca jun
il ies
aw ful
Ġappointment s
Ġweekend s
Ġgif ts
Ġoccas ions
incredi ble
b es
k in
r s
en g
ver t
Ġst ood
ch ea
Ġcom fy
Ġany way
Ġwait staff
Ġup on
Ġpar ts
Ġprofessional ism
Ġpa thetic
Ġrun s
Ġchang es
Ġterri bly
Ġwaff le
Ġmechan ic
Ġcrunch y
favor ite
Ġm atch
ri ous
Ġst ated
and ler
Ġbla h
Ġmanag ed
Ġunder cooked
Ġfre aking
Ġmiss ed
Ġwarrant y
m a
s ame
an ch
le ts
Ġsu ck
Ġclean ers
Ġthem selves
Ġbr is
Ġser ious
Ġchar ming
del i
Ġreg ret
Ġregular s
Ġsk in
Ġbring ing
Ġmention ed
h as
w est
re nt
Ġb ooked
at or
ll a
end ed
Ġr am
op e
no v
Ġad vert
Ġdec ision
alth ough
Ġmil k
Ġrel ative
Ġcompliment ary
Ġcompass ionate
nes day
f air
g ant
s ince
Ġs ce
Ġr ang
Ġwater y
io d
Ġplay ing
Ġcra ft
Ġchef s
Ġbegin ning
Ġwaff les
Ġimag ine
m edi
Ġ =
Ġs il
in ter
id s
Ġwor ds
Ġca mp
Ġdis respect
Ġcomp ared
if ully
Ġcomple x
bs ite
Ġwelcom ed
Ġreserv ations
Ġpatr ons
Ġspl it
ivers ary
help ful
Ġreceip t
o ld
t ake
Ġh ooked
Ġme h
Ġwe ar
ach ed
Ġmeat balls
Ġsteak house
Ġkeep s
Ġwater ed
Ġdecor ated
pl enty
rill ed
sh ould
Ġground s
chea p
s es
es ar
Ġl amb
Ġper iod
sa lad
Ġrep airs
Ġreal ized
Ġann iversary
Ġear th
Ġsou l
Ġconst antly
Ġschedul ed
Ġparent s
icha el
Ġbris ket
b ott
m ake
Ġch andler
Ġthr ow
edic t
ok ay
ph o
Ġpop ular
Ġben edict
Ġsmil ing
whel ming
reason able
c ute
o g
s c
Ġb and
Ġfor m
Ġwe bsite
Ġne ither
red ded
Ġun pleasant
over s
Ġcook ie
Ġye ll
Ġbud get
Ġcarp et
s ometimes
as ure
Ġd ance
Ġfa iled
lo ppy
ation al
Ġdid nt
Ġcomp an
Ġregular ly
Ġcoup ons
Ġstr ange
Ġdou ble
Ġimport antly
Ġmcdonal d
Ġinstru ctor
Ġhoo ters
Ġ 4
er k
Ġt am
Ġt ail
ver se
Ġst opping
Ġsh ape
Ġrecommend ations
Ġk im
Ġcl ients
Ġpr int
Ġrequest ed
Ġluck y
seem s
e en
m ark
Ġs ort
Ġgood s
Ġnot e
Ġke y
ud es
Ġcocktail s
Ġb lo
Ġd enny
Ġex am
Ġj ala
Ġv an
Ġamazing ly
Ġcar r
Ġ1 0
Ġbook s
Ġrec ord
Ġban ana
Ġmedic al
call ed
z ero
Ġm att
ou ble
ll e
Ġth ird
Ġst ap
Ġwe ak
Ġr aw
Ġnice st
Ġher tz
Ġac cept
Ġlea ves
Ġserv es
Ġlight ing
Ġups cale
Ġcorrect ly
gu ess
Ġcent ral
Ġpict ures
Ġfam ilies
bott om
e ff
t own
z e
at u
Ġd ump
Ġin edible
me t
ch ips
un believable
Ġca red
Ġman i
love ly
Ġfe ed
Ġegg plant
Ġcor ner
Ġbl ast
Ġpass ed
fr ont
Ġread ing
Ġmen us
Ġvac ation
k ward
m uch
r am
Ġo dd
Ġl ousy
Ġplace d
il bert
Ġcomp etent
Ġeat s
Ġad m
Ġimpress ion
Ġreg ard
Ġtal ented
simp le
Ġhy pe
Ġmic row
n ut
ur ate
et er
Ġqu oted
Ġpe an
Ġph x
Ġpri de
Ġpick les
Ġarri ve
Ġridiculous ly
Ġmush room
Ġstandard s
Ġnurs es
a f
b oy
e ither
k a
s k
al ing
ent iful
Ġex ist
end y
ch ar
ak s
Ġapp ear
Ġpl entiful
Ġac ceptable
man ager
Ġapolog ize
par king
Ġear ned
Ġacc urate
Ġentertain ing
Ġang ry
soo oo
c orn
i ff
i ally
er able
at ur
ac hi
com ing
Ġno body
am a
Ġri pped
Ġhand led
ub by
Ġeff ort
Ġpol icy
Ġwed nesday
Ġdisc over
Ġfrustr ated
Ġhist ory
Ġrelative ly
Ġs loppy
Ġch im
Ġca use
Ġpre tz
Ġveget able
Ġinform ed
Ġfacil ities
Ġdro pped
Ġevent s
Ġwrap s
Ġpatr on
deli very
b as
e asily
f ree
Ġs ite
Ġf ing
Ġg er
Ġl ab
ur ther
Ġdri ed
av id
Ġpick y
get ic
worth y
Ġbeaut ifully
Ġquesad illa
Ġpress ure
Ġbal ance
Ġs law
Ġf ool
ar ant
us ing
Ġcom ment
Ġca esar
Ġbar ist
Ġmar k
li er
Ġgi ant
Ġsub way
Ġdescri be
e ed
e gg
h igh
i me
l iterally
ot s
Ġwe ather
Ġsh redded
Ġcl ue
Ġspecial ty
Ġpl atter
Ġsmall er
Ġsc all
Ġcontin ued
Ġorgan ic
Ġarr ange
i pped
m any
o bviously
t al
nd ing
Ġc atch
Ġh on
Ġg ilbert
us s
Ġclean liness
Ġhand ed
Ġresp ond
Ġtip s
Ġsto ck
Ġins ane
Ġwar ned
Ġmcdonal ds
Ġoper ated
Ġimpro ve
v isit
Ġp ow
Ġh ip
Ġm ile
al most
ir m
Ġwh e
Ġout back
Ġen ergy
Ġclean er
Ġste llar
Ġwr iting
Ġmar in
Ġadd itional
ud os
Ġhell o
Ġsw itch
Ġpict ure
Ġembarrass ed
Ġcolle ge
sk ip
j o
r om
Ġs es
Ġb i
Ġb low
Ġn ap
Ġn urse
le y
la im
ic he
Ġfe et
Ġcr ave
Ġdrin king
wor se
Ġsk ip
ara oke
Ġgentle man
Ġacknowled ge
rest aurant
Ġses ame
b et
b land
l in
p s
Ġ esp
Ġb ank
Ġo pp
Ġd ated
ast ed
ust er
Ġli kes
Ġco con
.. .
Ġph illy
Ġbu ck
oc ado
Ġdri vers
Ġpa ir
Ġpri v
Ġdep ot
gre ens
Ġcocon ut
a ved
w aste
Ġb all
Ġt ex
Ġg on
Ġm ood
Ġm ike
is y
Ġre nov
Ġme in
Ġk ing
Ġlike ly
Ġpro ce
Ġaw kward
own er
ea red
cess ary
Ġho ag
Ġinterest ed
Ġacknowled ged
min al
l uck
Ġt an
es an
Ġsh ared
Ġdin ners
Ġshow er
mm m
Ġbas il
Ġsuggest ions
Ġur g
Ġmis erable
a ign
Ġw ines
Ġs an
in nam
Ġm elt
Ġn ic
Ġl ame
Ġy og
ro d
Ġwant ing
Ġperson ally
Ġlight s
Ġreception ist
cl ass
Ġsil ver
innam on
Ġd ad
Ġd arn
Ġare as
Ġfa v
Ġqu ant
Ġexper t
Ġevery time
ect ed
Ġcan ce
be ye
ap s
Ġprom ised
Ġpedic ures
Ġalter n
Ġparm esan
Ġstraw berry
medi ocre
Ġchim ich
Ġger man
s we
Ġt at
es a
ing y
Ġth rilled
an n
Ġse arch
ag ing
Ġother wise
Ġdeal t
Ġunder standing
Ġhand le
Ġdoor s
co ffee
Ġmeet ing
Ġstud ent
Ġchamp aign
g ener
v al
Ġi di
Ġg h
Ġy el
um er
us ually
Ġsp ec
Ġmin im
Ġtr ouble
fri es
Ġad ults
ne ither
Ġmar y
Ġsad ly
Ġclo thing
Ġtre asure
Ġtow els
ossi ble
Ġtar get
h ard
Ġf le
on es
Ġin n
id ers
ef ully
ress ive
Ġknow n
Ġcan ned
Ġwant s
Ġchar m
act ually
Ġpart ies
Ġspe edy
Ġomelet te
stay ed
Ġrefill ed
pri ate
Ġram en
Ġcamp us
swe et
f red
er ous
Ġs ir
re g
Ġt em
Ġc innamon
Ġth er
Ġe ase
Ġr ough
app le
are lla
Ġad orable
Ġhonest y
ser ver
Ġtrust worthy
por tions
amp le
Ġincon sistent
Ġphot o
zz arella
b art
u um
z one
th umbs
Ġs elf
Ġi ve
id ing
Ġr oo
Ġleft overs
Ġhigh light
Ġbas ket
Ġbother ed
Ġcomplain ed
Ġentertain ment
Ġmot el
ram i
t able
Ġ 8
Ġf uck
Ġc ry
Ġc lam
Ġo y
Ġwas ting
it ary
Ġe yes
Ġch all
un e
Ġk not
Ġk araoke
Ġpro gr
Ġdr a
Ġbig ger
Ġav ocado
ci al
Ġmess ed
Ġlow er
Ġart ist
Ġpain t
Ġcashi ers
look s
Ġexpl an
Ġtheat re
Ġprogr am
c um
er ies
ce nding
Ġc laim
Ġn atur
es cending
um pl
Ġk at
Ġte eth
Ġmo zzarella
Ġwin ner
ester n
Ġapartment s
Ġham burger
Ġupd ate
Ġimpro ved
Ġvac uum
Ġremodel ed
Ġdiscover ed
Ġw et
ad d
Ġso ld
Ġkeep ing
Ġspend ing
Ġtech s
Ġint rod
Ġmach ines
Ġwindow s
Ġupd ated
din ner
Ġlat te
Ġchimich ang
Ġknot s
p ast
re cent
Ġf ountain
Ġm ountain
est e
Ġbad ly
Ġgu arant
Ġdec ide
Ġtell s
Ġtell ing
Ġcond escending
Ġtoast ed
Ġscrew ed
Ġstap le
f ab
g lad
n ight
s le
Ġp ip
Ġd umpl
per ature
Ġas su
ger y
Ġfl uff
Ġpack age
man agement
Ġfact ory
erg ency
Ġroast ed
Ġhon or
r ane
u eless
Ġw endy
Ġp u
Ġp ies
Ġp ink
Ġr ates
Ġno isy
Ġri beye
ag ed
ong ol
Ġimp ossible
Ġres ult
Ġsub st
Ġboy s
Ġapolog ies
iter rane
Ġnum erous
yum my
Ġpump kin
Ġtem perature
ongol ian
iterrane an
d irty
f el
h o
h aps
r ound
la fel
Ġin vent
ro l
Ġthat s
Ġr arely
Ġevery day
ab out
Ġenjoy ing
Ġpl ants
Ġbusiness es
Ġcheese burger
Ġrep ort
Ġcont rol
some thing
Ġcur rent
Ġpepp ers
Ġstick s
Ġques o
Ġsmil es
Ġmembers hip
Ġbooth s
Ġcompet itive
Ġscall ops
Ġquant ity
Ġtat too
recent ly
fab ulous
b ath
l ooked
Ġw on
Ġm ill
Ġm ichael
Ġd en
Ġd anc
Ġl ake
ac he
Ġlo s
Ġlo vers
Ġal fred
Ġas h
Ġam ong
Ġde g
Ġun it
Ġcl ueless
Ġhotel s
Ġsur gery
Ġpick ing
Ġappet ite
Ġaccommod ate
Ġwash ed
Ġincon ven
Ġpush y
Ġrubber y
bet ter
Ġexplan ation
Ġalfred o
g y
r d
Ġ 7
Ġb oot
Ġh its
Ġm ari
Ġe aster
Ġwi ld
Ġlo aded
Ġse par
Ġste amed
Ġsales man
Ġem ergency
bv ious
gi en
Ġallow ed
inter est
Ġm er
Ġd est
Ġto ilet
le ct
ay s
Ġex ample
ak ed
Ġca f
Ġqu een
Ġman go
Ġchees este
Ġad dic
bo ard
fortun ate
Ġbas e
Ġdep end
Ġhy gien
Ġmed iterranean
Ġdra ft
a h
b on
l uster
n ge
s et
u el
Ġ /
Ġ 9
Ġo bvious
res so
Ġrecommend ing
Ġdis organized
Ġun imp
Ġhapp ens
Ġapp t
Ġprofessional s
Ġmeat ball
Ġbro ke
Ġexception ally
Ġlou nge
Ġtv s
Ġpost ed
Ġmel ted
Ġburn ed
Ġcow ork
Ġmacar oni
Ġattemp t
Ġluke warm
c cess
w ings
Ġd ust
Ġl and
le ft
Ġr at
Ġup town
Ġrest rooms
Ġloc ally
Ġfla v
Ġsm ok
Ġchees y
Ġdi verse
ser vers
oon s
Ġhospit ality
Ġbowl s
Ġpres ented
Ġhang out
Ġfoot ball
tal k
k udos
re nch
Ġp est
en ities
Ġin f
Ġch un
Ġr is
Ġr ated
Ġfa lafel
Ġpe ace
Ġext ensive
be er
be ing
Ġdeal ing
Ġsur round
Ġplay ed
Ġclos er
Ġhop ing
gi ving
Ġfrequent ly
Ġhorri bly
Ġblood y
c oh
d ge
d own
s on
Ġ +
Ġt u
Ġst ress
Ġch ris
Ġsh ake
Ġfa ke
lo in
Ġrest room
Ġbar bers
not ch
Ġtr ail
Ġcare ful
over priced
any ways
Ġfar m
Ġmanag ers
Ġlack s
Ġlack luster
Ġind ust
Ġremember ed
Ġpres cri
Ġori ented
Ġacc ount
sur pris
Ġconsist ency
coh ol
d ec
g ue
s and
v in
Ġ 6
th us
Ġf urther
Ġb ul
Ġm ild
Ġch air
Ġli qu
Ġsu ccess
il ity
Ġco bb
Ġany body
Ġfe es
Ġapp e
Ġdi rect
Ġdeli vers
Ġsc am
Ġpoint s
br ing
sat is
Ġtick et
Ġdisrespect ful
sand wich
f la
k ids
r or
t ent
th ru
as k
la rious
Ġso y
Ġsa vor
Ġv ol
Ġco les
Ġgr its
Ġdi re
Ġdi et
Ġbread s
Ġfull y
Ġcook s
Ġprov ides
tr ust
Ġcolor s
Ġslice d
Ġeye br
Ġsmooth ies
Ġsafe way
Ġed uc
whel med
Ġsmo king
Ġteach ers
Ġdumpl ings
tent ious
Ġcoles law
b achi
n asty
p y
u gg
Ġa h
Ġw ing
en ed
ent ial
Ġam enities
Ġfr ank
ab i
Ġdr unk
Ġsele ct
Ġjob s
Ġsc re
ub en
Ġfl or
Ġair line
ale t
Ġbag s
go ing
ud ge
Ġdon ut
Ġconf using
Ġspice s
Ġsho e
Ġcorn bread
Ġhi bachi
Ġwont on
Ġir rit
stick s
Ġpriv ate
the less
Ġh ire
Ġm esa
or iz
Ġe th
Ġin te
Ġal cohol
ke e
ch ees
Ġj im
Ġwor n
Ġag es
Ġhas sle
mi ke
ction s
be e
ai red
Ġdish onest
Ġunder st
Ġsec ret
Ġsl iders
ison ing
Ġsuggest ed
Ġtyp ically
Ġstrong ly
Ġalter ations
Ġpo isoning
Ġassoci ates
Ġperform ance
Ġinstructor s
Ġyel pers
oriz o
g ly
Ġf ans
in ation
Ġp uff
Ġh ated
Ġm ongolian
Ġl it
st al
Ġha ll
Ġst ri
Ġlo se
Ġdo zen
Ġcon n
Ġun helpful
Ġve ter
Ġbr anch
Ġsuper ior
Ġter minal
Ġref use
Ġput ting
Ġmess age
Ġchang ing
Ġstick y
Ġna an
Ġcat fish
Ġcharg es
luck ily
satis fied
d ri
m s
m akes
n ope
v ine
Ġi ll
Ġb alls
Ġm ir
en n
st ers
al es
Ġgreat ly
et to
ir ts
Ġlo ving
un less
Ġsh irt
ter ri
Ġsu gar
Ġqu ote
Ġpro ced
app ed
Ġbar g
itt en
Ġset s
Ġclos est
Ġplan et
ste ak
Ġgold en
Ġfig ure
Ġpow er
Ġgh etto
fla vor
d ont
m en
Ġp ure
Ġp ud
Ġc ub
Ġst inks
Ġal ot
ate ful
Ġup beat
Ġhelp s
Ġun organized
Ġreason s
ach es
Ġfin al
sh rimp
Ġsatis f
some one
Ġsmooth ie
Ġaut om
Ġsound s
Ġskill ed
Ġmuff ins
Ġmarin ara
Ġnatur al
Ġpud ding
0 0
e le
f c
Ġa le
an ie
Ġre uben
Ġsh ar
Ġv oice
il t
Ġco x
am ing
Ġhe avy
ress ing
Ġun believable
ard s
Ġcomp ut
Ġgr ateful
Ġdi pping
Ġsc ream
co ld
Ġflow er
Ġmechan ics
Ġbatter y
Ġscr atch
Ġintrod uce
Ġfluff y
b l
i ves
r ated
er a
Ġg ate
is a
et iz
Ġsh ocked
Ġli e
Ġv ide
app etiz
Ġmin i
Ġve ts
im ately
Ġwal greens
Ġdes p
lar ge
ne y
Ġoffer ings
Ġcost co
Ġansw ers
Ġdetail s
Ġtemp ura
believ ably
Ġfit ness
Ġleg it
Ġhi larious
ha ving
Ġsmo ked
Ġexhib its
Ġmatt ress
Ġnic er
d esp
h ome
k ins
m ine
Ġs ix
Ġp ec
Ġp anda
Ġg all
Ġch op
mend ous
os h
our met
ks h
Ġup stairs
ab solute
ian c
Ġpl astic
Ġchar ac
Ġchin a
Ġpay ment
Ġgreet ing
Ġbowl ing
Ġcal zone
Ġhang ing
Ġwonder fully
Ġfollow ed
Ġaltern ative
Ġflav ored
b by
c akes
n uts
th ree
re l
Ġf i
Ġf et
Ġt ag
Ġt enders
me at
Ġr ave
qu ate
Ġk etch
cell ed
Ġcomp ar
Ġve al
ex c
Ġbeca me
Ġseason al
Ġbed side
Ġfloor s
Ġhead ache
Ġma hi
Ġtrain ed
inc ere
Ġsupport ing
look ing
Ġcap it
bes ides
Ġvan illa
Ġpean ut
Ġnap kins
class ic
Ġsilver ware
reg ard
Ġpip ing
desp ite
Ġketch up
w atu
Ġf iance
Ġf ianc
Ġo re
ou st
st ore
Ġat roc
Ġj oy
Ġsh akes
res ent
Ġti ll
Ġco ke
ich oke
Ġdr ag
Ġcour ses
staff ed
Ġcheck out
Ġcost umer
Ġclos ing
Ġpanc ake
Ġear lier
Ġplan ning
Ġdesert s
Ġbrown s
Ġtre nd
iv id
Ġgroom ing
Ġdist ance
Ġdisp lay
Ġesp resso
Ġtex as
Ġther ap
watu kee
Ġatroc ious
j oh
m ari
s as
Ġ es
Ġ vers
Ġs imi
ce ption
Ġp ine
Ġp up
Ġc ro
Ġg ourmet
le nd
Ġre sol
Ġin sist
Ġch orizo
Ġex ec
un acceptable
Ġsu p
Ġu gly
Ġevery body
Ġstar ving
Ġbre ath
Ġph ys
Ġsal sas
be ware
Ġhome y
Ġmay o
Ġgar age
Ġind ivid
Ġwar ning
Ġsouth west
Ġface s
Ġhur t
Ġhur ry
Ġlear ned
sal sa
Ġfig ured
Ġsnack s
Ġcharg ing
Ġfashion ed
Ġupgr ade
Ġproce eded
Ġsavor y
Ġcub an
joh n
Ġsimi lar
e ated
s oup
v a
Ġa de
Ġw ood
Ġo ily
Ġd j
Ġd ingy
es y
is or
me an
Ġli me
iz ation
Ġun fortunate
Ġte as
Ġad vent
Ġrep eated
Ġdress es
Ġsecond s
Ġind oor
Ġcard board
Ġdetail ed
Ġmil ksh
Ġcup s
Ġapple bee
Ġmis o
Ġlear n
Ġrespons ive
Ġfing ers
Ġbarist as
Ġchimichang a
Ġah watukee
Ġdesp ite
Ġade quate
l ies
u ary
w ater
y et
Ġs incere
Ġi hop
Ġc andy
Ġh ers
Ġo ven
la me
Ġbe ware
Ġr ain
Ġli mo
Ġv alet
Ġcar n
Ġapp all
Ġbur ro
Ġdi vine
Ġunder whelming
Ġserv ings
Ġmust ard
Ġsk etch
Ġappetiz ing
Ġmess y
Ġorgan ization
Ġmem ories
Ġbrew s
Ġlisten ed
Ġfall ing
Ġhum or
Ġlemon ade
Ġble nd
Ġmart in
Ġcance l
Ġcro iss
Ġsketch y
u h
w el
Ġs ang
Ġf oc
at ers
is u
Ġre co
ir am
ch and
ch ini
Ġj e
Ġstaff ed
Ġk ab
il ian
itt ed
Ġcan celled
Ġshe ll
Ġnew s
Ġdown right
Ġpat ty
iss ion
Ġlea ther
Ġreal ize
Ġexce eded
Ġdep ressing
Ġsign ed
Ġthanks giving
tr ue
Ġbox es
Ġcent s
cle arly
Ġconcer ned
uc chini
Ġcourt esy
Ġsce ne
eter ia
Ġprescri ption
iram isu
chand ise
d ro
Ġ x
Ġg um
ed d
me l
Ġca m
ig ate
Ġbr akes
are t
ons ider
Ġbro ther
Ġlive ly
Ġlist ens
Ġart ichoke
Ġeng aging
Ġpractice s
Ġrec ip
Ġir ish
Ġtechnician s
Ġut ter
Ġsepar ate
Ġmer chandise
f ail
m ary
p ot
t ip
u g
u th
x ious
y ing
er ed
Ġb f
Ġd ude
Ġre ll
Ġy a
Ġlo l
Ġam az
and ed
mp ed
Ġdisappoint s
every time
Ġwhen ever
Ġsm art
Ġdi ag
Ġunder staffed
Ġlar ger
ons in
Ġsk y
Ġgener ic
zon es
Ġcra mped
isc onsin
Ġtrad er
Ġcoll ection
Ġsoooo o
Ġstylist s
work ers
Ġvehic les
Ġfat ty
Ġele v
Ġcompan ies
Ġrespond ed
Ġurg ent
Ġfuck ing
thus i
Ġpec an
r age
t ac
Ġw estern
Ġw isconsin
Ġb es
or row
Ġto y
om b
Ġin it
ur t
ad ing
Ġsa ving
and om
am ond
Ġbre ast
if t
Ġstay s
Ġle ase
Ġcont ain
Ġpri cy
Ġsupp lies
Ġhairc uts
Ġhear ty
Ġacc ident
Ġcompli ments
Ġstud io
Ġcig aret
Ġconcern s
Ġpest o
Ġindust ry
Ġpuff s
rage ous
f our
k i
m enu
m ans
p an
th ose
in os
Ġb ird
at a
Ġto es
al se
Ġfor ced
ch e
Ġli ves
Ġloc k
Ġar c
Ġapp s
Ġbu gs
Ġwr itten
Ġkind s
Ġweek ly
Ġsever e
Ġconf irm
exp ected
Ġspe ed
Ġinstall ation
Ġreplace ment
Ġgrand e
Ġyell ing
Ġoy sters
Ġpine apple
Ġinsist ed
mans hip
b it
p at
p le
t om
Ġa ge
Ġw aters
Ġb ands
is ing
Ġl ee
ri a
Ġfor t
us ion
un ning
ant age
Ġli ed
Ġk fc
lo af
Ġen thusi
Ġwork out
Ġworth y
Ġcar ol
Ġste ve
Ġdi amond
Ġlast ed
Ġnow here
Ġind eed
Ġprov iding
Ġtom orrow
gr ity
Ġ1 1
Ġpool s
und red
Ġcu cum
Ġrequest s
Ġpub lic
Ġinstall ed
Ġdough nuts
Ġassist ant
Ġbun s
Ġsun set
Ġprior ity
Ġult imate
Ġchow der
Ġcaf eteria
f ull
u an
Ġs ight
Ġs ca
re ed
Ġp our
Ġg al
Ġm aster
on a
Ġre he
Ġre de
Ġin ch
Ġch ops
ad ise
Ġj erk
Ġr ow
Ġfr ames
Ġcon cept
Ġun able
Ġtw ist
li ed
Ġz ucchini
Ġfree z
Ġattit udes
gr ound
Ġsund a
Ġstrip s
Ġtyp es
Ġfollow ing
Ġpurchas ing
Ġclient ele
Ġdefin ately
Ġmicrow ave
Ġinvent ory
Ġcomput er
Ġrede em
g ie
o iled
r on
t f
Ġt iramisu
Ġh ills
Ġh rs
Ġh ubby
Ġo m
Ġl aw
it ation
ac ist
us es
un t
Ġas ide
Ġr ack
Ġsp oiled
Ġout rageous
ect ive
Ġri des
Ġvisit ors
Ġwal nut
Ġke ys
Ġhard ware
up on
Ġprom ise
Ġexc iting
Ġadv antage
Ġamer ica
Ġass ort
Ġrespect ful
hop e
Ġsqu are
Ġcelebr ate
Ġtam ales
Ġadm it
Ġeaster n
Ġvide o
Ġcharac ter
Ġindivid ual
Ġsang ria
c our
j a
l ines
Ġc ult
ou d
Ġe p
ic o
pp ies
Ġsh irts
os it
Ġv ine
Ġgr ow
gg ed
ber ty
Ġreview ers
Ġpast rami
Ġfin est
Ġcomple ted
Ġfish y
Ġfre ak
Ġsk imp
Ġentire ly
Ġsupp ose
Ġowners hip
Ġcond i
Ġpop corn
Ġcab bage
Ġwin ter
hop efully
Ġpaper work
Ġblue berry
Ġsamp les
Ġsamp ler
Ġjala pe
Ġstudent s
Ġinconven ience
Ġcheeseste ak
Ġpeace ful
Ġinte grity
h usband
h idden
t w
Ġi d
Ġb one
Ġh undred
ur y
ro gant
Ġsa ke
Ġas ks
qu et
Ġagain st
Ġstar ts
ind y
Ġbr ings
Ġatt ract
Ġbu b
Ġbread ed
Ġbread ing
Ġbread sticks
Ġmeat loaf
Ġcor ned
Ġvari ous
Ġairport s
wait er
sp icy
Ġ2 4
Ġlu be
Ġbrew ery
Ġbi kes
Ġyog urt
Ġguarant ee
surpris ingly
Ġeyebr ows
chees e
Ġcarn itas
edd ar
c as
d ate
d am
m w
m ond
r up
t es
Ġf ired
Ġm r
Ġd ig
ri l
ut ed
ent ive
Ġch opped
Ġex ag
os s
int age
il ton
ry lic
Ġag reed
wh atever
Ġcar t
Ġapp eared
Ġdin ning
Ġro se
Ġro bert
Ġchees es
Ġac rylic
Ġpast as
av igate
Ġadd ress
Ġprep are
Ġapolo getic
Ġcomm on
Ġjoint s
Ġmass ages
Ġadv ise
att entive
Ġome lets
Ġsy rup
Ġlevel s
Ġsqu ee
Ġfam ous
reason ably
Ġaccess ories
Ġhar bor
Ġtick ets
Ġinsp ection
Ġpretz el
Ġspec ific
Ġdeg rees
Ġdest ination
Ġchun ks
Ġtu cked
Ġbarg ain
Ġexag ger
b ear
i pping
l u
m bers
t asted
w ash
Ġf ond
Ġp it
Ġc ats
Ġg oo
Ġd avid
Ġn avigate
Ġto st
Ġe cle
ic ilian
Ġj uly
Ġas pect
Ġr ad
Ġpre c
own ed
if ied
ct ic
ex ception
Ġad just
Ġstu dy
Ġrep ut
Ġhim self
Ġbit ter
fi eld
Ġfac ial
Ġcal zones
Ġins ul
bt w
Ġele gant
Ġwax ing
iff y
Ġarrange ments
Ġecle ctic
d uring
h alf
p ical
z ed
th ird
Ġw ise
Ġt rees
or ding
or rect
Ġd om
Ġch eddar
Ġj unk
Ġr andom
Ġv intage
ort un
Ġun believably
Ġdr aw
Ġdi ed
Ġres ident
Ġhigh est
Ġfl our
ord inary
Ġinter act
Ġbill ing
Ġhappen ing
Ġpass ionate
Ġadv ance
Ġbott les
ph enomenal
amb led
Ġsoooo oo
Ġtre mendous
Ġham burgers
Ġbisc uit
Ġphot os
bas ically
Ġopp ortun
Ġsubst it
Ġintroduce d
d an
d one
f elt
l iance
u ght
Ġf u
in ed
Ġb ang
Ġb mw
Ġp ap
Ġg un
Ġm ign
Ġe h
st ar
ic ian
Ġst one
Ġpla gue
Ġch ir
Ġj am
Ġr out
Ġsu its
Ġall ey
op ract
Ġour selves
Ġhe y
Ġar rogant
Ġbur gh
Ġafter wards
Ġke lly
ne cessary
sa uce
Ġweek day
ra ce
Ġcont ract
Ġcut ting
Ġval ent
Ġput s
super b
Ġla und
Ġincl ude
Ġass um
Ġbell y
Ġmov ies
Ġhist or
od ka
Ġcater ing
Ġlab or
Ġimprove ment
Ġassu me
Ġliqu or
Ġproced ure
Ġmign on
Ġchir opract
c chi
d ough
Ġs la
Ġs icilian
in sp
Ġb oo
Ġh ilton
Ġo b
Ġo ct
Ġm at
Ġm ail
ing er
Ġbe verage
Ġal mond
Ġj ess
Ġdo c
Ġr ay
Ġv odka
Ġag ent
Ġstar ting
Ġde lay
no cchi
Ġdr ain
Ġfun ky
Ġbreakfast s
Ġinc orrect
Ġdes per
Ġroll ed
Ġarri val
Ġdep osit
Ġchain s
Ġspice d
Ġappro ach
bec ue
Ġrefer red
Ġforget table
Ġforgot ten
pa thetic
Ġremind s
Ġassoci ate
Ġmart ini
Ġexhib it
Ġjala p
Ġkat su
Ġtrend y
Ġdiag n
f l
f ind
n orm
u nder
v s
w all
Ġf ight
Ġb s
Ġt ight
Ġt ub
Ġc able
Ġh om
Ġh eck
Ġn ames
is que
Ġto pped
st one
us ual
Ġch erry
Ġlo ver
Ġj iffy
Ġso cial
Ġstaff s
Ġun expected
Ġcr aw
Ġcl erk
Ġdown stairs
Ġste al
Ġbla me
sel s
Ġpast or
Ġpot ential
Ġrun ny
Ġpick up
Ġcheap est
Ġaccom od
go d
Ġthought ful
ition ally
Ġreme mbers
amb a
with out
Ġsound ed
Ġny c
Ġenc our
Ġscr ambled
Ġchat ting
gener ous
add itionally
ho ly
Ġappe aling
sandwich es
terri fic
b ing
b ri
p ed
Ġ @
Ġa ud
er ing
in side
Ġb isque
Ġp i
Ġc ouch
Ġwas nt
it ions
Ġst ains
ac a
Ġme ant
ant ed
Ġli br
Ġsu it
se ver
Ġde m
no body
no xious
Ġdin ed
Ġbu eno
Ġtri o
Ġad ding
Ġpa o
Ġair ways
Ġend s
Ġtrip s
Ġart ists
Ġtouch ed
Ġchance s
Ġbri an
Ġcontact ed
last ly
Ġtrave ling
Ġoper ation
Ġassist ance
Ġgroom er
Ġele ct
pa id
Ġrot ten
Ġwhe ther
Ġsir loin
bath rooms
Ġbes ides
Ġlibr ary
d ef
e my
g ave
i als
l im
l ittle
Ġb ou
Ġb order
as ked
Ġm s
Ġd edic
Ġd irt
Ġn ational
Ġre fried
ot ic
Ġbe coming
Ġch ai
ch ris
un ique
Ġv ent
il s
Ġen emy
Ġwork er
Ġde v
Ġun necessary
own ers
Ġapp liance
Ġbr ake
Ġrude ly
Ġbo b
Ġbo iled
Ġsure ly
li est
Ġrep ly
Ġact iv
Ġneighbor s
Ġdecor ations
Ġton y
Ġturn s
Ġconven ience
Ġrem ark
Ġfrustr ation
Ġtopp ing
Ġappro priate
ste ve
Ġsw im
Ġleg s
Ġmic he
Ġattend ed
Ġdesign s
Ġnurs ery
incredi bly
recommend ed
sur d
Ġtail or
dam n
exception al
d essert
f low
i antly
p rom
y le
Ġa ce
er ent
Ġthe me
Ġg nocchi
Ġl v
ver ages
Ġe ager
st art
Ġch i
Ġwh eat
Ġj an
ous es
Ġr ud
Ġsp read
Ġdis app
Ġus eless
Ġpar adise
ian a
be ef
Ġway s
Ġdi me
av ior
Ġoffer ing
Ġexce ed
Ġset up
Ġextra ordinary
Ġsign s
Ġfab ric
Ġpass ion
Ġcal ories
Ġbeh avior
Ġma x
Ġvegetari ans
Ġremo ved
Ġamerican ized
Ġappro ached
Ġhorri fic
Ġrot ation
Ġcelebr ation
Ġrecord s
Ġhoag ies
Ġdepend able
Ġhygien ist
Ġscre en
Ġore gan
d ave
d avid
m ail
m ale
p es
r ing
r ance
Ġa i
Ġa u
er ence
Ġh es
Ġd ut
Ġis land
Ġto ys
Ġto wards
st op
ar ound
Ġbe verages
Ġy uck
ir ky
Ġwe ight
Ġam ple
Ġse w
os a
Ġsu ff
Ġno ise
he y
Ġfr ame
ist ent
Ġpe p
Ġde bit
Ġcan no
every body
Ġbr ow
Ġbr ows
Ġfast er
Ġgr ace
Ġwr apped
Ġdeal er
Ġkind ness
Ġmex ico
Ġpat ience
Ġle ad
Ġcomfort ing
Ġap ril
ign ment
Ġcoup les
Ġvi a
Ġlist ed
Ġadd s
Ġsign ature
Ġconf erence
Ġdisc uss
Ġson ic
Ġrent ed
Ġrent ing
Ġord inary
Ġconc ert
Ġmach aca
Ġsho ck
Ġgentle men
Ġrip off
bb ie
orm ous
Ġmicrow aved
Ġpretz els
Ġhoag ie
Ġidi ots
regard less
Ġcucum ber
b ow
s ound
u cc
v iche
Ġ ess
re nd
Ġb iz
Ġt orn
Ġp ier
at ives
Ġg f
Ġg lo
ou red
en i
Ġn ugg
an na
Ġe as
Ġe ve
Ġbe gan
ad es
ch ed
ch ata
Ġj amba
Ġr oot
Ġli nd
Ġtoo th
Ġpe ach
Ġfe male
Ġbar becue
ens ils
Ġmo del
Ġmar ch
Ġthr own
Ġrep aired
Ġrep resent
Ġact ed
pris e
Ġair lines
Ġstop s
anc y
wait ing
pre tentious
Ġest imate
sp ent
Ġmass ive
Ġcra f
Ġrem ote
Ġbutter y
Ġign ore
Ġcup cakes
Ġappro x
Ġang el
Ġquestion able
Ġcompass ion
Ġlaugh ing
Ġut ensils
Ġminim al
past a
Ġdanc ing
Ġassort ment
d al
h ubby
l s
l ater
t reat
u me
w in
w ife
Ġs no
Ġb less
Ġt so
Ġt ree
Ġt ang
Ġp ill
Ġp ound
Ġd read
Ġn amed
Ġth o
ic t
Ġch a
ant ro
Ġbut t
se a
Ġfr it
il antro
app ro
Ġstar ters
Ġpre gn
Ġover whelming
Ġfe at
Ġbu ds
Ġste pped
Ġgre y
Ġpr oud
Ġsc ott
Ġsurpris ing
Ġsmell y
Ġbl t
Ġsub par
Ġce il
Ġsign ific
ump y
Ġhop es
Ġdam age
Ġcreat ed
Ġhear ing
Ġdiscount s
Ġbud dy
Ġble w
Ġbeaut y
loc ation
Ġarrange ment
Ġirrit ated
Ġreco gn
Ġbub ble
Ġob noxious
1 0
V ery
b ana
e h
f ive
l est
p edi
Ġs li
Ġc ert
Ġc ilantro
Ġo z
Ġo ak
Ġo li
Ġn ative
it ty
ri ck
Ġto ss
Ġwi l
Ġj er
ack y
os as
Ġcom ments
out s
Ġri ver
Ġover rated
Ġun re
Ġper haps
Ġtr ack
turn s
Ġent rance
Ġtop s
Ġmus sels
Ġcre pes
air y
Ġmonth ly
Ġvi bes
Ġprep ar
Ġthank ful
Ġpain less
Ġide as
Ġpract ically
Ġass et
Ġcombin ations
Ġhol es
Ġtrans fer
Ġmuff in
Ġminim um
bart enders
Ġrell eno
Ġrehe ated
Ġfreak in
sever al
a a
b i
g race
i ving
l os
t aking
z a
Ġ q
Ġw an
Ġf ed
Ġt ai
Ġp in
Ġp en
Ġp ort
Ġc ir
Ġg ear
Ġm as
Ġm im
or age
Ġd ates
is es
ri ct
ot to
al d
Ġst unning
Ġy ard
ch er
Ġfri lls
Ġso ap
aff ic
Ġsu ite
ill age
Ġco le
Ġfresh est
Ġun usual
Ġsal ted
Ġgr ub
Ġgr acious
ner y
Ġad ult
Ġmo ld
Ġchec ks
ari an
Ġpa ce
Ġinst antly
sp end
Ġconf ident
Ġbook ing
Ġmatter s
Ġshot s
Ġche er
Ġremind ed
Ġfly ing
Ġpatron ize
Ġfool ed
Ġrenov ated
Ġidi ot
bart ender
Ġcowork ers
Ġflor ist
Ġcapit al
Ġvine gar
Ġjalape o
insp ired
norm ally
eni us
s mo
w ine
Ġs us
Ġp al
Ġp ants
Ġh eld
Ġg inger
Ġm i
Ġd airy
Ġn ick
is ite
Ġwas abi
Ġto dd
la ck
Ġbe ats
ent al
ur ope
Ġwe i
Ġne cessary
aff ord
qu isite
Ġli king
Ġk no
he ll
ty ard
Ġour s
ie ved
Ġoff ic
Ġover char
Ġmin us
ca re
Ġlunch es
Ġro bin
Ġgr ass
up date
Ġstand s
Ġmist akes
Ġcreat e
Ġbri dal
gre asy
Ġgroc eries
Ġgroom ers
Ġsmoke y
Ġdist rict
loc al
Ġadvert ising
Ġblo ck
eff icient
Ġappear ance
visit ed
Ġunimp ressed
Ġsmok y
rench ed
Ġsatisf action
Ġinit ial
Ġattract ive
lim ited
afford able
b ef
p ick
s am
y ep
Ġ um
in ste
as ed
Ġh ush
Ġd renched
st ri
Ġex ch
ad as
Ġti l
Ġli l
Ġsp ort
Ġsp oon
Ġk ung
lo l
Ġtheir s
Ġstar ter
Ġoff ended
Ġfe llow
Ġun ion
ag us
ag ne
Ġcomp ens
Ġsand which
be yond
Ġke vin
Ġrep lied
Ġeff ective
mm ed
Ġdress ed
Ġcontin ues
Ġce viche
par agus
Ġadv ised
omet ime
gre en
pri cing
Ġattend ant
Ġenter ing
Ġroo f
Ġpu ppy
interest ing
Ġinf o
Ġphys ician
Ġadvent ure
Ġom g
rend ous
bef ore
inste in
s erv
t ies
t aste
y ce
Ġa yce
the w
Ġs ink
Ġh int
Ġo d
en os
ri ott
Ġe urope
st rong
la va
Ġst ations
Ġst orage
ac le
ch a
Ġj udge
Ġfriend liest
Ġsh aved
Ġas ap
Ġas paragus
Ġr ust
qu es
Ġli f
Ġli mp
Ġqu it
Ġqu al
Ġab surd
Ġco d
ind s
Ġman ners
Ġtr affic
Ġby ob
Ġste w
ber ries
Ġpast ry
Ġfl u
mm mm
Ġmess ages
Ġsupp ly
keep ing
Ġju ke
Ġcal m
ph one
Ġhor chata
Ġmet ro
Ġsy mp
Ġsqu ash
Ġdough y
Ġer ic
Ġer ror
Ġdef iantly
Ġir on
Ġcarp ets
Ġschedul ing
Ġsce nery
Ġblo nd
Ġcarr ots
Ġinsane ly
Ġchall en
Ġchall eng
Ġpu ppies
dec or
Ġale x
Ġfet a
exc use
pot ato
Ġamaz ed
Ġep ic
Ġaccomod ating
appro priate
Ġoak land
- -
b ought
b ility
l ife
m ust
p ool
u x
v d
v ince
x ible
Ġa is
Ġf est
Ġb omb
Ġp ur
at own
Ġm ale
Ġn c
le ading
Ġre tail
Ġj un
Ġgo at
Ġsp ir
Ġca ught
he w
Ġqu irky
Ġgu ide
Ġhot do
ca pe
Ġown s
Ġop ted
Ġexp ired
fri ger
that s
Ġcour tyard
Ġslow est
Ġless on
br ought
Ġcur ds
Ġra ised
Ġhospit able
perfect ly
Ġspr outs
Ġanswer ing
Ġdaughter s
Ġsour dough
Ġhor rendous
Ġsmooth ly
Ġcomplain ing
Ġgrab bed
Ġdeserv ed
Ġskill et
Ġtax i
Ġthrow ing
bon us
Ġris k
Ġcompar able
Ġutter ly
Ġredeem ing
Ġhistor ic
stri ke
friger ator
c ris
e ll
l back
m ac
p ossi
w less
Ġs ometime
Ġm imi
Ġd efinite
Ġd ave
an ish
ly n
Ġre frigerator
ot a
erv isor
Ġgood ies
Ġlo ad
end ent
ro lls
Ġwor ry
Ġso re
Ġsh elf
Ġsh ipping
Ġfa ve
Ġsp anish
op en
Ġu don
Ġco ast
Ġwork manship
own s
if ically
Ġfla wless
Ġgr ade
Ġgr atu
fri day
Ġwal ks
ep endent
to ld
sa la
Ġmar ks
Ġmar riott
Ġsc ore
Ġhand ling
Ġsty les
Ġfill s
go ld
sh ort
gr ap
Ġbed room
Ġpass ing
Ġmem or
Ġpain ful
fr ank
Ġins ult
Ġide al
Ġpic o
Ġpost ino
Ġbrew ed
Ġblack ened
Ġbon eless
Ġmis leading
Ġattend ing
Ġdesign ed
second ly
ivers ity
Ġenter prise
Ġcig ar
mar gar
Ġadvert ised
sc ore
Ġappear s
Ġfle xible
Ġlos ing
Ġrat ings
stal g
wel come
Ġsevere ly
Ġcult ure
Ġcondi ments
Ġopportun ity
Ġms g
Ġcheer ful
possi bly
Ġgratu ity
c rip
s how
t ables
v os
Ġ 30
Ġs ess
Ġi mo
Ġf alse
Ġc vs
Ġg ri
oo p
la ys
Ġst ates
Ġservice d
Ġch imi
ir med
Ġex quisite
Ġj ump
Ġj une
ul u
Ġr on
qu aint
Ġse ven
Ġfa ther
os ite
Ġcom b
Ġout lets
Ġno stalg
Ġdis s
Ġfr uits
Ġsome how
izz ling
ment ary
Ġpe aks
Ġfresh ness
Ġde ce
Ġun like
Ġun satisfied
Ġun iversity
Ġhapp ily
Ġmo cha
Ġdec lin
Ġmar sala
Ġpart ner
Ġchin atown
Ġunder whelmed
Ġdecent ly
Ġsalon s
Ġbas is
Ġbak lava
Ġincl udes
Ġcolor ful
Ġeng ine
Ġlay over
Ġflight s
Ġloyal ty
Ġoccasion ally
Ġsend ing
Ġmag ic
Ġmag ical
beat able
Ġkill er
kind a
umb led
salad s
Ġhighlight s
Ġash ley
interest ed
Ġfrank ly
Ġvers ion
lend ale
Ġsup ervisor
Ġmilksh akes
Ġkab ob
Ġcarol ina
Ġnugg ets
Ġwil ted
crip tions
Ġdeclin ed
c ertain
d ry
i ant
j ect
n ings
s mell
er ia
Ġs ong
Ġt end
Ġt ad
Ġp oured
Ġc ou
Ġh r
Ġm ama
Ġn oon
Ġl oose
Ġth ri
it ution
Ġe instein
Ġre e
Ġin attentive
Ġin appropriate
ac ul
Ġch ick
Ġj eff
per haps
ter ior
Ġsu ites
Ġv illage
se arch
Ġpro s
Ġpro ject
Ġany ways
ag le
Ġcar ts
Ġenjoy s
Ġcame lback
any thing
Ġmeat y
Ġdri pping
price y
Ġcas a
Ġpa ul
ale x
up ied
Ġinst itution
Ġbl izz
rill iant
Ġind ependent
Ġsol ution
Ġcur t
Ġmor nings
Ġsunday s
Ġfact or
Ġhang over
Ġfriday s
Ġimm acul
Ġocc upied
Ġ2 0
Ġacc ording
ru ction
Ġsamp le
Ġhorri d
Ġenter ed
Ġhar ris
Ġholiday s
Ġregard less
soooo o
Ġopp osite
Ġyog a
Ġcry ing
Ġland mark
Ġfi eld
bri an
Ġeas ier
b an
c lo
c ost
c row
j im
r un
r ough
s ing
Ġa qu
Ġw oo
Ġw tf
Ġb ay
Ġp am
Ġc reme
Ġc act
on y
Ġl ands
Ġl inks
Ġe agle
Ġre wards
Ġst ack
et ime
Ġlo x
Ġfriend liness
Ġout ing
Ġpro fess
Ġen ormous
Ġrest urant
Ġun even
Ġun pretentious
Ġun inspired
Ġun beatable
Ġknow ing
Ġeat ery
Ġve nd
Ġcl t
Ġbu g
ree py
Ġpl ant
Ġwr ote
Ġtim ing
ari um
arm a
Ġval ues
ath y
ush ed
Ġmain ly
Ġwash ing
Ġconf irmed
Ġtech n
Ġconsider ate
Ġtrad ition
iv al
Ġemail s
off ice
Ġaccess ible
soo o
Ġfail ure
Ġult a
Ġrang oon
Ġpean uts
Ġswitch ed
Ġsan itary
Ġris otto
Ġdire ction
Ġscream ing
Ġhers elf
Ġtoy ota
Ġsunda e
Ġdesper ate
Ġdedic ated
prom pt
Ġjan uary
Ġdisapp eared
Ġcanno li
Ġglo ves
ict or
Ġtoss ed
Ġaqu arium
Ġprofess ion
a ly
g ary
g orgeous
m ain
m iss
t ro
Ġt one
Ġt ank
Ġp ers
Ġp pl
Ġc ere
Ġc op
Ġc reepy
Ġh ir
Ġh ook
Ġg lendale
Ġm erry
Ġl ately
ve get
Ġto ler
Ġex terior
Ġj ason
Ġsh el
Ġv ision
Ġdis grace
Ġpe i
Ġover done
Ġdin ers
Ġro yal
ass y
Ġext reme
gg ie
ame l
Ġres ched
sa id
Ġpr a
av o
su nd
Ġinter action
Ġexc uses
Ġla mp
Ġconsider ed
Ġcond itions
Ġwar n
Ġbott led
Ġlu v
Ġwall et
Ġwont ons
cr appy
Ġfall en
Ġclear ance
Ġconst ruction
Ġhum ble
Ġpan era
Ġtrans action
person al
Ġver de
Ġform er
Ġfing er
Ġspec ifically
Ġunimp ressive
Ġjim my
Ġelev ator
Ġcigaret te
Ġenthusi astic
Ġsquee zed
Ġactiv ities
Ġremark able
Ġprepar ation
Ġchalleng ing
* *
e the
i um
i os
p ay
p anc
r ay
w atch
Ġf its
Ġf irm
Ġb ored
Ġc ous
Ġm ort
ll i
Ġd ang
Ġd umb
an es
ice d
Ġwi ped
Ġal ike
ad ium
com es
Ġsh ift
thing s
lo gy
Ġv is
am ame
Ġpre mi
Ġcomp are
ost on
if y
Ġworth less
Ġar gu
ex per
Ġtr ade
Ġspot less
Ġpl ane
Ġmake up
Ġgre w
ber g
Ġreview er
Ġswe ethe
Ġslow ly
ons ense
br unch
Ġcons ult
Ġglad ly
Ġsuggest ion
Ġpic nic
por tion
amb iance
work er
Ġben ef
Ġtow el
Ġfaj ita
Ġcondition ing
Ġpo llo
Ġmel ting
Ġcompet ition
Ġcig ars
Ġmid night
person ally
eng uin
Ġcarr ot
Ġbarist a
egg s
Ġclaim ed
Ġcowork er
Ġshar ing
Ġcroiss ant
dro ve
Ġreput ation
Ġpill ows
certain ly
Ġsweethe art
c ashi
d as
d efin
f rench
i ri
k nowled
s an
v ia
w ar
y an
th ought
th rough
Ġa hi
Ġw and
Ġf if
Ġb ass
Ġt j
Ġt int
Ġt ear
Ġp itch
Ġh ue
or ant
Ġn ut
Ġl ap
Ġl eng
Ġl isa
Ġl anes
Ġre ach
ot ive
ic ated
Ġit aly
me al
ent ially
el ing
id ence
Ġat m
Ġam y
Ġr yan
Ġk n
Ġcom ic
ate ment
ond a
Ġpe ak
Ġri c
Ġcon vince
Ġover whelmed
Ġfe ature
Ġcr av
Ġhapp ier
ig iri
Ġcar amel
food s
Ġbu ilt
Ġpl ans
Ġste ph
Ġmenu do
ap el
Ġad ore
Ġfind s
Ġpa lace
oh a
Ġbl own
Ġcrow ds
Ġcal i
Ġtrust ed
bu ff
Ġcorrect ed
Ġdiscount ed
Ġgard ens
Ġsell ing
Ġspeak s
Ġupd ating
Ġleg end
Ġsun ny
Ġcommunic ate
Ġdescri bed
ific ate
Ġpush ed
hot el
Ġtheat ers
Ġbalance d
jo e
Ġash amed
Ġsurround ing
Ġunderst atement
oust on
Ġmartin is
Ġskimp y
Ġlaund ry
Ġbou quet
Ġoregan o
Ġdut y
Ġpen ne
Ġcrav ings
a thetic
a ja
b ro
b acon
c or
c onsider
h or
h ate
r as
s ign
v ada
Ġf lo
Ġb aja
Ġt acky
Ġp enguin
Ġc and
Ġh ouses
is sa
Ġth us
Ġso das
Ġr d
Ġr ye
Ġli berty
Ġdel ux
Ġv w
se ll
Ġco at
Ġus es
Ġloc ked
Ġclean est
Ġri d
Ġtr uth
ol ved
Ġte le
Ġhusband s
ci er
Ġtal ent
Ġarri ving
Ġbuffet s
Ġstick ers
Ġinv olved
por k
Ġremo ve
Ġrefund ed
Ġmanic ures
Ġtour ist
cr ab
Ġmed s
Ġadvert ise
Ġregard ing
Ġwhe el
Ġbarbers hop
Ġunderst ood
Ġautom otive
appetiz ing
Ġdrag on
tac os
Ġgrow ing
Ġfond ue
Ġrout ine
Ġswim ming
Ġceil ing
Ġsli my
Ġcert ificate
Ġexch ange
Ġeurope an
Ġlif etime
Ġthri ft
Ġimmacul ate
Ġdelux e
b ag
g es
i el
m al
n el
s pe
w ed
th s
er getic
Ġs izzling
Ġg m
Ġg enius
Ġm oon
Ġn uts
Ġn igiri
Ġth om
it os
Ġre search
Ġst adium
ay a
me h
me x
ast o
us as
ro s
com end
Ġr ule
Ġr acist
Ġse x
Ġout let
Ġno da
Ġqu ar
am ble
Ġen ergetic
de al
Ġun appetizing
ig ner
Ġbr ands
Ġfla g
Ġter ms
Ġpor ter
thank fully
Ġtri es
sa fe
Ġice berg
Ġshow ing
ci a
Ġvari ed
Ġhouse keeping
Ġgrill e
sp ecial
Ġpolite ly
Ġmac ay
Ġexplain ing
Ġign orant
Ġsaus ages
Ġcu z
ky o
Ġsummer lin
ident ial
Ġur ine
Ġtap as
Ġed ge
Ġed amame
Ġbatter ed
Ġembarrass ing
Ġquesad illas
Ġshady side
anch ise
Ġwear ing
Ġurg ency
Ġsearch ing
Ġphoto grap
Ġclam s
lect able
Ġconn ection
Ġrain bow
Ġappall ing
Ġexagger ating
Ġtost ada
Ġinsul ting
Ġvalent ine
Ġjess ica
Ġappliance s
Ġbrow se
Ġpregn ant
Ġod or
Ġrust ic
Ġchallen ge
c ra
g age
g ressive
i la
m ice
n is
o bs
th ai
Ġf ile
Ġf alls
Ġf udge
Ġo s
Ġm int
ou l
Ġd u
Ġl ed
Ġl ing
Ġto ts
Ġre li
Ġre tro
ic ulous
al i
Ġst ained
Ġst umbled
et ies
Ġch apel
ff any
ad am
Ġfri dge
Ġj ac
Ġj ames
Ġse ared
Ġback ground
Ġca used
ty pical
Ġfr anchise
ist ro
Ġpe ar
Ġcon es
if er
Ġmin or
Ġcar ries
Ġjo es
Ġshe ets
ck y
Ġop t
Ġste er
Ġher bs
wor king
Ġtri m
art s
Ġdec k
Ġsweet s
Ġsc ary
Ġvari eties
get ting
ott a
ott i
Ġart work
Ġspr ay
ili ar
Ġrem ain
Ġconvenient ly
Ġmet iculous
Ġlu x
Ġyoun ger
Ġtrash y
Ġbab ies
cr ust
Ġshit ty
Ġprev iously
Ġche ated
Ġboard ing
ma jor
pho enix
bas ed
Ġassu red
Ġcurrent ly
Ġdirect ly
enn ifer
mean while
Ġarc ade
Ġfort une
Ġmat thew
Ġmiche lle
Ġapprox imately
Ġsignific antly
Ġblond e
sund ay
Ġric otta
mice lli
1 5
b bq
f ill
g irl
j ess
m ight
m ichael
p ut
p berry
s ent
s hi
t ast
y ear
re lax
Ġb ent
Ġb istro
Ġt ab
Ġc ross
at ient
Ġh ood
Ġg als
Ġm ater
is ions
ri ch
st ery
ut ter
pp er
Ġsh aw
Ġsh opp
Ġsa v
iz a
he ard
ie ce
Ġaw are
Ġde lectable
Ġbar rel
Ġbreak ing
ee p
Ġtw enty
ach el
Ġmo j
Ġtaste ful
Ġswe ar
Ġmar ked
Ġle ak
li ked
by e
Ġaccom pan
gar lic
Ġfix ing
gin ally
co zy
sp a
Ġcomm er
Ġpass able
Ġsales person
tr ad
Ġdive y
Ġrequ ired
omet own
Ġhead ed
Ġori ginally
vel ous
Ġbrown ie
Ġfil ter
Ġgel ato
Ġbon es
Ġfam iliar
Ġgroom ed
Ġdescri ption
Ġlear ning
Ġdan ny
Ġlat est
Ġyell ed
Ġcompan ion
Ġprint ed
iff erent
Ġexpert ise
Ġtrail s
dec ided
Ġappall ed
Ġje ans
Ġrecip e
Ġrecip es
Ġlock er
Ġoli ves
Ġoverchar ged
Ġsore ly
panc akes
Ġshaw arma
c indy
m us
m il
n if
p ad
w asted
y on
z o
Ġa ction
Ġs ens
Ġb oston
Ġt art
as ide
Ġp age
Ġand y
Ġo l
Ġd il
Ġl ulu
ri er
ut ions
Ġst age
Ġst ol
um pt
Ġlo an
Ġlo af
ch ec
Ġwor ried
Ġsh ack
Ġsh opped
Ġsh oot
Ġti le
Ġall erg
az z
lo st
iz on
he alth
am s
oint ed
Ġpe e
Ġeat er
Ġcan yon
not e
Ġfla ky
ca p
Ġro b
Ġro ss
Ġatt ached
do ctor
Ġcare less
Ġher b
gg age
gg ies
Ġinc re
Ġpast e
pro s
Ġwater ing
Ġend ing
Ġbl oom
Ġpack aged
ext ra
Ġcrust y
Ġadd ressed
Ġwash es
pleas antly
Ġprov ider
Ġshort ly
Ġspe aking
Ġsaturday s
Ġpain ted
Ġdentist ry
Ġhead ing
Ġlu ggage
Ġentertain ed
Ġsqu id
Ġgrand ma
Ġstate ment
Ġattend ants
Ġpo ck
Ġstraw berries
Ġhum an
Ġmedic ation
Ġjohn s
Ġpets mart
des ert
Ġupgr aded
Ġexpl ore
Ġmid as
Ġver micelli
Ġdefin ition
bath room
Ġmari a
Ġdust y
Ġbul k
Ġcobb ler
dri ve
Ġautom at
Ġtherap ist
Ġexec uted
Ġgum bo
Ġcontain er
Ġinch es
Ġresident s
Ġpap a
sound s
cris py
exper ience
war ning
Ġsteph anie
Ġstol en
umpt ious
h ost
k im
l ie
l ousy
o ber
p et
u age
w ant
y i
y ard
Ġ cell
Ġp unch
Ġm t
Ġl ang
Ġre action
Ġin qu
Ġfor k
Ġfood ie
Ġy rs
Ġan tip
Ġj azz
Ġsh ip
Ġor deal
Ġk oh
he aven
he llo
Ġqu iche
se y
ry an
Ġtoo ls
Ġsome body
Ġhe ather
Ġoff ensive
Ġman age
Ġcould nt
Ġlunch time
Ġro aches
Ġshe lls
are n
Ġimp atient
Ġspot ty
ap ointed
Ġac oust
Ġdes igner
Ġperson nel
ang ed
Ġmar ried
Ġmar ginal
Ġoffice s
Ġsc ience
Ġact s
Ġfin ance
Ġsty lish
Ġgem s
Ġbl vd
br owns
Ġgross ed
ok er
Ġcur ly
gr anted
Ġclos et
Ġstre ets
Ġmem ory
Ġreserv ed
Ġhor se
Ġfro st
Ġbri de
dd en
irt ually
Ġmajor ity
Ġlaugh able
Ġhar sh
who ever
Ġchamp agne
mark able
Ġproce ed
ann oy
Ġguarant eed
Ġden ied
Ġbase ball
Ġpup usas
Ġconfirm ation
Ġfreez ing
Ġassum ing
Ġremote ly
Ġdread ful
Ġdiss apointed
Ġcact us
Ġlang uage
Ġantip asto
b ill
b ud
b ird
c ream
f o
g as
h abi
p ose
y elp
Ġa j
Ġs ke
Ġs cale
Ġt ed
Ġt sa
as pberry
Ġh ometown
Ġo bs
Ġg ates
Ġm mm
Ġd ull
is o
Ġto kyo
ice nt
ar c
ar re
Ġin j
ad ia
Ġj ose
Ġne vada
Ġsh oo
Ġsh ane
res e
Ġr aspberry
qu iet
Ġsp are
os is
Ġout come
Ġv irtually
Ġdelicious ly
ab by
Ġpre tentious
Ġover bear
no logy
Ġcomp lic
Ġnew ly
Ġtri via
Ġinc ident
Ġbig gie
Ġok ra
bo x
amazing ly
Ġwo k
av is
Ġcool er
bur g
ra id
ra ther
Ġegg rolls
Ġdry er
Ġfree way
Ġopen ing
Ġfill et
Ġwish ed
Ġset t
Ġappoint ed
Ġcontin ental
Ġpres criptions
Ġpres idential
Ġtech nology
Ġdam aged
ton y
ara h
Ġwonder ing
Ġprocess ed
car ing
Ġheaven ly
Ġmic ro
Ġconst ant
Ġfail s
Ġteach er
mar ket
Ġtam ale
Ġrenov ation
Ġtan ning
Ġcance led
hard ly
Ġvacuum ed
Ġirrit ating
Ġvoice mail
Ġresol ved
Ġcroiss ants
onsider ate
Ġbird s
Ġfreez er
Ġrad io
Ġinteract ive
Ġchiropract ic
Ġjalap eno
Ġau gust
Ġtang y
lest one
Ġmas ala
Ġoffic ially
Ġpur pose
Ġspir it
Ġcomb os
Ġpremi um
san itary
nif icent
health y
habi b
Ġobs ess
Ġoverbear ing
Ġcomplic ated
2 0
d ish
f ety
l isa
n or
o be
r uin
Ġa pt
re ce
re turn
Ġb als
Ġb tw
Ġp ressed
Ġp oker
Ġc one
Ġh onda
Ġg la
Ġg ee
Ġg ather
Ġm oo
Ġm al
Ġn erv
on ation
Ġl ens
Ġth ous
an o
ur able
um bo
Ġch em
Ġlo ss
Ġal ignment
great est
Ġne g
Ġti pped
Ġr andy
Ġbut ton
ers ey
Ġk ay
Ġdis satisfied
Ġu gh
il ty
am ic
Ġus a
out d
Ġwait s
Ġcon cess
Ġde pt
Ġfe ast
ag ers
Ġar row
Ġbu ll
Ġpleas urable
Ġexp anded
Ġinc onsiderate
Ġdes cent
Ġref lect
Ġbit ch
Ġlet s
Ġbas ics
Ġsmell ing
go gi
Ġarri ves
Ġind ifferent
Ġest im
umm ed
Ġgreet s
sp in
Ġpres ence
Ġson or
Ġspr ings
uff le
att es
Ġdelight ed
Ġcoll ard
Ġrock ing
Ġhostess es
amp oo
try ing
Ġmoder ately
ste aks
lay a
Ġscr umptious
Ġpan ang
Ġroad house
Ġcompet it
Ġche v
Ġhash browns
Ġmacar oons
Ġattemp ted
Ġcrack ed
Ġcomment ed
Ġoy ster
Ġmill ion
Ġaddic ting
Ġveter inary
Ġmir acle
Ġarc adia
Ġsubstit ute
Ġapproach able
Ġdiagn osis
Ġdem and
Ġborder line
start ed
Ġess entially
Ġbiz arre
Ġfeat ures
Ġtransfer red
Ġpin ch
Ġbals amic
Ġchem ical
+ +
a id
b ees
c al
f raid
h and
j u
m att
p ap
r ors
s ay
t am
t ucc
y esterday
th in
Ġa we
Ġa fraid
Ġf uss
Ġf uel
Ġb c
Ġt ro
Ġt ong
as mine
Ġp int
Ġp urse
oo sing
or ary
Ġn om
Ġl attes
Ġst ressed
ent il
ur ge
ur ry
ir rel
Ġnot ed
ke vin
un til
ec tions
Ġwh ipped
Ġj erry
Ġj osh
ul ie
per fection
Ġsh all
Ġsh ampoo
Ġsp ecially
Ġv ist
il ia
ab ove
ab ilia
Ġri ding
ine x
Ġun limited
ag ue
Ġgu ilty
ig ent
Ġjo king
Ġtr ay
ue b
Ġsuper market
Ġatt r
Ġte eter
Ġgr own
Ġgr umpy
Ġneed ing
Ġreturn s
reme mber
for ward
stand ard
Ġrece iving
Ġcre pe
Ġsoo ner
Ġpay s
port ation
Ġstr ugg
Ġra ce
Ġra ise
Ġavoid ing
bu y
Ġcra ig
Ġhop efully
Ġrush ing
Ġinv est
Ġpurchas es
Ġomelet tes
Ġassist ed
Ġjewel er
Ġconvers ations
Ġhawai i
waitress es
sal es
Ġmag nificent
Ġkill ed
Ġtest s
Ġrespons ible
Ġcater ed
Ġdisp lays
Ġcrack er
Ġaccept ed
Ġfeed back
Ġmarin ated
Ġdeg ree
Ġrat io
Ġvol ume
Ġresol ve
Ġbreath taking
Ġfoc used
tac o
Ġoct ober
Ġelect ric
Ġjamba laya
Ġunre markable
Ġkno cked
Ġmemor abilia
margar itas
Ġnostalg ic
Ġacoust ics
arc astic
tucc ine
Ġtong ue
Ġvist a
a way
a res
j ason
p ow
p ass
p ol
p ensive
r ays
w ide
w estern
the m
Ġf itting
Ġb ust
Ġb out
Ġb ummed
Ġp ile
Ġh d
Ġh itting
Ġh ired
Ġg amb
Ġd un
Ġl in
ve t
Ġre ward
Ġha llow
Ġpla za
Ġon to
et ly
et te
ast ers
Ġch oosing
ad ent
ch ool
ch uan
Ġan ti
Ġj ar
Ġso aked
Ġne llo
Ġr ail
qu il
Ġcom ics
Ġdel ic
Ġno pe
Ġpre t
Ġthem ed
Ġcon vent
Ġover pow
Ġfe br
Ġun its
ig antic
Ġext ended
be ans
Ġte e
ep h
Ġdoes nt
Ġkind ly
Ġhand ful
Ġexpect ation
Ġefficient ly
Ġbill s
gar bage
Ġ1 5
Ġconf idence
Ġspr int
mon y
Ġta qu
Ġmean ing
Ġbri e
Ġsqu irrel
Ġhold ing
Ġrefer ring
Ġhur ts
Ġgirlfriend s
Ġmel ts
Ġtrans portation
Ġspl urge
Ġemail ed
sc ott
ze chuan
Ġpow der
Ġhip ster
Ġblow s
Ġdanc ers
Ġbul gogi
Ġeduc ated
Ġscre ens
Ġstri kes
Ġconn ect
Ġfet tuccine
Ġrepeated ly
Ġmilksh ake
tw ice
Ġpit iful
Ġpep si
Ġpier cing
anna h
Ġcraf ts
Ġcompens ation
strong ly
crow ded
Ġpers ian
cashi er
Ġtear s
Ġkn ife
Ġconvince d
hor ri
Ġsex y
Ġbent o
ruin ed
inex pensive
Ġbout ique
Ġgamb ling
Ġdun no
Ġhallow een
Ġconvent ion
Ġfebr uary
c er
c ount
f il
f urther
h ara
k now
k ka
m om
m other
s ides
w an
w ere
w onder
x istent
Ġa aa
Ġw it
Ġs arcastic
re a
in ct
Ġb ilt
Ġb oss
Ġb rilliant
Ġp itas
at ric
Ġh un
Ġd ying
is co
Ġl ying
it i
it o
Ġe con
ar on
el ed
est yle
ro bert
Ġj ung
Ġfriend lier
Ġsa fety
igh ty
ter y
Ġti kka
Ġgo sh
Ġget away
Ġab und
se ating
Ġpe eling
Ġover looked
Ġun sanitary
Ġcomp ed
Ġph ones
Ġar by
Ġcar te
irst y
ure n
Ġte pp
Ġbo at
Ġste el
Ġste ep
ap ore
any how
for get
bo b
Ġdec adent
Ġcas hew
su b
Ġpoint ed
Ġbro thers
Ġlow es
Ġra ved
Ġplay er
con ven
Ġestablishment s
exp ect
Ġadv isor
Ġtalk ative
Ġign oring
Ġnone theless
Ġnone xistent
car ne
Ġbri ck
Ġcock ro
Ġben ch
Ġrub en
Ġlisten ing
ha ha
Ġmedic ine
Ġfire place
Ġintern ational
Ġdist inct
Ġpedi atric
Ġjuice s
Ġcow boy
Ġperform ed
Ġver izon
Ġyellow tail
Ġskin ny
Ġblow ing
Ġtattoo s
Ġinconven ient
Ġsurround ings
Ġsuccess ful
Ġappe al
Ġeduc ational
Ġselect ed
mean or
Ġsca red
oss om
Ġboo ze
Ġencour age
Ġrud est
Ġsew age
Ġsno b
Ġtodd ler
Ġsess ion
Ġprofession ally
Ġcere mony
Ġcop y
bag els
Ġthom as
Ġinj ury
Ġbilt more
Ġecon om
Ġjung le
b arely
d ue
e orge
f re
f it
g iana
h it
h ound
i bility
j ack
j ang
j erry
k er
m at
n ick
s ite
t ons
w ood
y ay
th orough
th ink
er at
Ġw are
Ġs now
Ġs ons
Ġi cing
Ġb k
Ġg eorge
Ġm asters
Ġl una
an ket
ri bs
Ġre ality
Ġst at
Ġst ories
Ġin efficient
Ġbe ar
Ġch os
Ġch ase
Ġch ann
Ġex it
Ġso le
Ġsa hara
Ġas sh
qu ila
Ġor lean
Ġse am
Ġli ar
Ġli ars
ge on
Ġv s
Ġab ility
Ġfr ys
Ġde meanor
te en
Ġgu ard
mi giana
ig on
Ġapp arent
other ed
Ġpar migiana
Ġro ach
Ġte en
Ġneed less
Ġmo ves
ger ous
Ġbla med
Ġmar velous
Ġpr ince
ance s
su pp
Ġtreat ing
Ġsur geon
Ġfl ies
iss an
Ġz iti
Ġend less
Ġwarm er
get s
ash ley
Ġbl anket
Ġturn ing
Ġaccommod ated
Ġwed ge
Ġwalk er
Ġcur ries
Ġpass es
Ġcle ared
Ġwar ner
Ġear n
Ġplan ned
Ġcount ing
Ġaut onation
Ġappro pri
Ġapple bees
Ġhy att
iny l
Ġur bana
ote in
wal king
cr ap
Ġwest in
Ġten nis
Ġcap rese
din ing
Ġmag az
seem ed
Ġdan gerous
Ġrespons ibility
Ġmid west
Ġadm ission
soooo oo
Ġacknowledge ment
Ġbuck et
Ġnic ole
Ġinvent ive
Ġdire ctions
Ġmir ror
home made
Ġes cape
Ġkab obs
Ġcam per
Ġcam era
Ġcigaret tes
Ġhundred s
Ġhes it
sea food
Ġfrit ters
Ġdece mber
Ġshel ves
Ġquar ter
Ġmacay o
ali but
Ġmatthew s
Ġsav ings
Ġcommer cial
jang les
erat on
Ġware house
Ġchos en
Ġorlean s
Ġappropri ately
a wn
b us
b ster
d aughter
e k
e ople
m r
m ind
p d
p urch
p lay
r andy
t ive
t ique
Ġs zechuan
Ġi phone
Ġf iled
Ġt all
Ġc ast
Ġc ul
at meal
Ġh alibut
Ġg aming
Ġg igantic
Ġm unch
Ġm ills
Ġm ighty
Ġn ature
Ġn onsense
es us
ed ing
Ġl entil
om a
Ġre verse
la zy
ic ing
al ong
Ġwi pe
Ġfor d
Ġgreat er
Ġy ea
ur ous
um es
Ġal ive
ke lly
un te
ro y
ant i
Ġan tique
Ġj umbo
Ġj ersey
Ġsh ru
Ġsh eraton
Ġsp ill
Ġback yard
Ġsu dden
and on
lo bster
se le
Ġfr aming
ven ue
Ġup front
ab ba
Ġde ar
Ġun ited
Ġun bear
Ġbar be
Ġar gue
Ġar oma
Ġper man
Ġjo in
ex cept
Ġpar ked
Ġbr ats
Ġsm othered
Ġpl um
Ġdes ire
Ġke e
Ġgre edy
Ġmo le
imp ressed
Ġsweet ness
Ġpr otein
most ly
Ġsc oop
esp eople
Ġslow er
Ġfair ways
Ġmust y
Ġsk ins
Ġprod u
Ġbl ues
Ġsl ide
anc isco
Ġturn around
Ġwatch ed
Ġsto le
Ġchild hood
Ġnum bers
Ġpersonal ized
Ġeng agement
Ġwin s
Ġsouth western
Ġlay er
Ġchew ing
pri me
Ġhold s
Ġsupposed ly
Ġsum s
Ġmot or
Ġprefer red
Ġjack et
loc ated
Ġdisrespect ed
Ġblo cks
Ġadm itted
visit ing
Ġroo my
Ġcheeseste aks
Ġliqu id
Ġcobb lestone
Ġeduc ation
flavor ful
Ġgall ery
Ġcapit ol
Ġsup reme
Ġsincere ly
Ġgal ore
Ġchiropract or
Ġdelay ed
Ġcraw fish
Ġcha otic
Ġjer ky
Ġjuke box
Ġargu ed
knowled ge
fill ing
mus ic
rece ived
Ġsonor an
Ġcul inary
Ġshru gged
Ġspill ed
Ġunbear able
Ġbarbe que
Ġperman ent
e vent
f ar
g al
h oney
j osh
l as
l vet
n n
p ain
s un
s outh
Ġa lar
Ġw re
Ġs orts
Ġb bb
Ġt un
Ġt uc
Ġc y
Ġm ap
en ess
Ġn eck
Ġn issan
an as
an berry
ar se
ut to
Ġha ys
Ġbe ach
ay lor
Ġex otic
est a
Ġal oha
ad ill
ch o
ch ili
ch rist
ul es
Ġsh abby
Ġbut cher
we ed
Ġsp ok
Ġsp arse
op us
Ġca bo
iz ing
Ġv inyl
Ġqu int
out ons
Ġman uel
Ġcr anberry
Ġcr outons
Ġworth while
Ġar m
Ġve lvet
lad y
ca lamari
ip ino
ol es
Ġsm iled
Ġte quila
Ġgr ape
Ġpl umb
Ġste am
Ġher o
ne at
li berty
Ġhand made
Ġrep s
iss ue
ci utto
Ġval ued
never theless
Ġbl ossom
Ġprom ises
sh it
Ġho lly
Ġhalf way
Ġbel ong
Ġlow est
Ġwatch es
Ġfac ials
Ġportion ed
Ġconf usion
Ġbeh old
ili bert
Ġpain fully
Ġear s
Ġdentist s
Ġbirthday s
Ġtender loin
Ġhead s
Ġpic s
Ġoutdoor s
Ġsell s
Ġinstall er
Ġmoder ate
Ġdie go
Ġstraight forward
Ġremodel ing
Ġpan ini
cl ose
Ġrang oons
Ġprint ing
Ġrenov ations
Ġaddic tive
Ġdepend ing
Ġsmok ers
Ġchun ky
Ġshar p
appetiz ers
Ġadvent urous
Ġdom inos
Ġassum ed
Ġjalap enos
Ġhom estyle
Ġelect ron
Ġdev il
flow er
Ġrud eness
Ġhes itation
Ġmim osas
smo king
serv ed
frank ly
main tenance
Ġcous in
Ġbenef it
Ġhue vos
Ġleng th
Ġphotograp her
mil k
cap ing
Ġpock et
annoy ing
Ġobsess ed
Ġalar m
Ġwre ck
Ġtuc son
adill ac
Ġspok en
Ġplumb ing
a verage
c ont
h oo
h am
h eck
k ana
l c
r us
r ation
t ch
v ice
th ony
er ic
er os
Ġs lots
Ġf ence
Ġf oul
in arian
Ġt um
Ġt ina
as ing
Ġp f
Ġp ed
Ġc ri
Ġc ott
Ġc reek
Ġh ouston
Ġo atmeal
Ġm ak
Ġm and
ll os
Ġd ense
Ġd cor
ver n
ri b
Ġe v
st r
st up
st eph
ar ri
Ġy ay
ur ger
ff ees
ro ll
Ġwh im
Ġj ennifer
Ġj asmine
Ġso cks
Ġso fa
Ġsa kana
Ġr ules
Ġse ars
Ġback ed
os her
Ġall ergy
ick y
Ġjust in
Ġco de
Ġco ffees
ab urger
ist ration
Ġhe ating
Ġun clean
Ġar ch
ex istent
Ġcl utter
Ġfun ction
be it
Ġop ens
Ġgr ay
Ġcare fully
to gether
friend s
any one
ne gative
Ġlast s
Ġswe at
imp ressive
Ġsur ly
ign ed
Ġpick le
ord ial
Ġless ons
Ġmusic ian
Ġcrust ed
dr ink
Ġfinish ing
Ġplay s
Ġpass en
Ġstre tch
Ġbook store
fr ustr
Ġta vern
Ġconsider ation
poor ly
Ġrem ains
Ġcab in
with in
Ġwin ning
Ġheart beat
Ġranch eros
Ġfil ipino
Ġsw iss
Ġban field
sec urity
Ġsamp led
Ġnach o
Ġregister s
none theless
pa ul
pa per
Ġsam s
Ġtuesday s
help ed
Ġsleep ing
Ġtax es
Ġmatch ed
Ġstap les
char lotte
Ġpriv acy
luck y
Ġvol unte
Ġhall way
bl ue
Ġexec ution
wel coming
cour teous
Ġacrylic s
Ġexagger ation
wash er
Ġgoo ey
Ġfu rious
Ġsla mmed
Ġdem anded
Ġbrows ing
Ġpal m
Ġsport ing
Ġron ald
Ġree ked
Ġpros ciutto
Ġlands caping
defin ately
buff et
Ġcand les
Ġaccompan ied
chec ked
Ġbloom field
experience d
Ġarrow head
knowledge able
Ġtum my
stup id
Ġclutter ed
b assy
c ake
d ress
d ark
f alse
g l
g ies
g rilled
h en
i res
j eff
l ind
m iche
n ty
p any
p ark
t im
t ender
w if
er ly
Ġi lle
Ġb at
Ġb are
Ġt issue
Ġp aired
Ġc ordial
Ġh ates
Ġd arts
Ġn ine
on na
an ical
ve mber
Ġe ld
le e
Ġre ar
Ġre new
ar row
ot anical
Ġst ir
Ġst ared
Ġst airs
Ġgood year
gh er
et work
Ġch uck
Ġal beit
ch ef
un ct
Ġam anda
Ġse ed
Ġsp it
ak a
Ġk ong
Ġno vember
mp i
Ġca ve
Ġag gressive
wh ole
Ġen sure
Ġhe ated
Ġaw ard
Ġde ath
te ll
Ġun cle
Ġun real
Ġgu it
Ġthan ked
Ġcar l
Ġsal espeople
Ġro ses
Ġpleas ing
Ġbo bbie
Ġbo jangles
Ġste aming
Ġchar red
Ġmo thers
act ed
Ġshould er
Ġent ry
Ġdec isions
Ġcas inos
Ġpa th
Ġsec ure
pro d
Ġtrip le
Ġaccom pany
Ġbill ed
Ġind ia
Ġwash er
co x
Ġsign age
Ġann a
ness ed
Ġcal ming
Ġem bassy
comp et
Ġhost ile
Ġdro pping
Ġrequ ire
Ġrequ ires
Ġtort a
Ġhop ed
Ġboyfriend s
Ġsing apore
fun ny
big gest
Ġmil itary
fy i
att le
Ġrequest ing
Ġevent ually
Ġass igned
Ġcoll ections
Ġsouth side
bel ieve
gu y
Ġrec all
Ġrec comend
can o
Ġtow ing
Ġalter ation
Ġjewel ers
wal k
cr azy
Ġbatter ies
Ġdef ensive
Ġcap able
Ġbrand on
slow est
Ġble eding
Ġyork er
Ġbottom less
Ġkick s
Ġdan iel
stick ers
Ġupgr ades
Ġtar o
Ġmatch es
Ġkim chi
Ġexist ent
Ġchimichang as
Ġdest roy
Ġhall ways
Ġfi esta
Ġcompar ison
Ġfoc us
Ġsca mpi
Ġsunda es
cour se
Ġtost adas
Ġinsul ted
Ġoct opus
Ġencour aging
Ġlind a
Ġfrit ter
Ġgrey hound
Ġrecogn ize
Ġjer ks
Ġmim osa
Ġhotdo gs
Ġcou nty
Ġblizz ard
Ġhir ing
Ġresched ule
Ġtele v
Ġdil worth
Ġsett led
Ġnerv ous
Ġstat us
Ġprince ss
event ually
steph anie
Ġille gal
onna ise
Ġeld erly
Ġdestroy ed
a ud
b aked
c ons
f ac
g on
g le
i am
m ings
m ission
o dd
p ost
p lain
p resent
s it
s ar
w ind
w art
w tf
Ġi ch
Ġf ilibert
Ġb ian
Ġb its
Ġb otanical
as ures
Ġc os
Ġc adillac
oo ri
en e
or i
Ġd q
ing redients
an adas
Ġto ward
om ol
st rom
Ġre ached
la cing
ere my
al as
Ġin ep
ur bana
us ive
ust in
id i
est ed
Ġan them
ul ed
Ġsh ine
Ġfa ith
Ġk en
Ġk al
Ġk udos
Ġprice line
Ġno ble
and oori
Ġv ictor
Ġdis interested
Ġu ber
Ġthere fore
Ġdelicious ness
Ġsome place
Ġyour s
Ġpe as
Ġaw some
Ġman ger
Ġbre e
itt any
ish ed
Ġjo ey
Ġtr out
Ġapp les
Ġbr le
Ġbr ule
Ġfla gged
Ġro y
Ġext ras
Ġdown side
Ġquick er
Ġent re
ari ly
Ġdish washer
Ġsat ay
Ġdri ven
Ġpat rick
Ġsweet est
Ġwo ke
Ġle aking
Ġle asing
su cks
Ġnail ed
Ġmay onnaise
Ġpol ice
Ġprom ot
Ġsch wart
Ġdress ings
Ġaccommod ations
Ġsub standard
Ġcontin u
Ġlight ly
co very
let te
sp ring
Ġann ual
Ġamount s
Ġrent als
Ġsing ing
Ġexplain s
ank y
Ġfo ld
Ġinv ited
Ġbox ed
Ġwind shi
Ġfore most
Ġim personal
isc os
Ġcoll ect
gu ac
Ġpizz eria
Ġcontact s
Ġjew ish
Ġban anas
Ġcondition er
Ġscr amble
Ġsam osas
Ġupset ting
Ġround ed
sal mon
Ġembarrass ment
Ġkick ed
des ma
Ġarr ay
icha els
Ġattemp ts
fair ly
Ġregard s
Ġtan ks
Ġclaim s
Ġveter inarian
cas ual
Ġhom eless
Ġaud i
Ġaud io
dessert s
Ġcraf ted
Ġnick el
Ġais le
Ġais les
Ġpam per
Ġtoler able
Ġconsult ant
Ġlux ury
tast es
host ess
Ġgee k
spin ach
Ġtro pical
Ġtaqu itos
further more
Ġwit nessed
conven ient
sele ction
Ġich iza
Ġinep t
Ġbrule e
Ġschwart z
Ġwindshi eld
b ook
b ooked
c ue
d ou
e z
f ine
h ummus
i est
k at
m ush
m onday
n se
s chool
t ort
t ure
w he
w endy
Ġa venue
Ġs not
Ġs its
re ts
Ġb erry
Ġt it
Ġt lc
Ġp gh
Ġp opped
Ġc oo
Ġc indy
Ġh h
Ġh oc
Ġh ub
Ġh ats
Ġh ike
Ġh uh
Ġg ay
or ig
Ġn etwork
is key
Ġl ice
Ġl igh
Ġl go
it ect
st ances
la p
ic ies
Ġha mp
Ġst are
Ġst ating
um ing
ac c
ir ation
id o
id ia
ch arm
Ġme asure
Ġan tic
com m
Ġsh own
res erv
Ġsp ic
Ġk ool
Ġk osher
Ġcom for
Ġout ta
Ġv in
Ġdis covery
Ġfr ancisco
Ġag gr
Ġhe aling
te ch
red ient
ag ine
Ġcr own
Ġeat eries
Ġdr ank
Ġper cent
Ġtr ap
im agine
Ġby e
Ġapp ly
Ġro bb
Ġflavor ing
ass uming
Ġday care
Ġbu zz
there fore
ip ated
Ġexp and
Ġbreak s
wor d
Ġad am
any aki
Ġsee king
Ġpat ties
Ġmar iscos
av a
av ation
Ġcool ing
Ġunder rated
Ġrep lacing
Ġsec rets
Ġpri cier
Ġav ail
Ġstuff y
bor ing
Ġval id
Ġpol icies
br avo
Ġdeliver ing
Ġing redient
Ġappreci ation
Ġsea weed
con f
con y
Ġsmi th
Ġhealth ier
und ido
Ġhell a
omet rist
uin i
Ġmix ture
amb ience
Ġrock y
Ġclassic s
gu ys
gi ven
Ġbri desma
Ġfrequent ing
ier land
Ġupd ates
Ġtrave ler
Ġtow ed
Ġforget ting
Ġten ants
Ġpolish ed
Ġhill stone
Ġcelebr ated
Ġble u
Ġimag ined
Ġrich ard
Ġcrack ers
ama ican
Ġexpert ly
Ġaltern atives
ann on
gener ally
Ġgh ost
cum stances
Ġmill er
Ġbase ment
Ġeyebr ow
Ġeth ic
Ġstri ct
Ġproced ures
Ġgall o
Ġrack s
lu v
Ġprec ious
Ġadjust ment
Ġdom ino
Ġvalent ines
Ġpi ero
Ġexceed s
Ġfabric s
ucc ino
Ġcir cumstances
pick ed
Ġflu ke
Ġfest ival
Ġhotdo g
jim my
Ġvend or
Ġpra ise
Ġfif teen
Ġpitch er
Ġopt ometrist
relax ed
Ġmoj ito
yi kes
Ġkoh l
Ġinvest ment
purch ased
Ġarch itect
Ġsnot ty
Ġhoc key
orig in
Ġlice nse
Ġligh ter
Ġhamp ton
charm ing
Ġantic ipated
Ġcomfor ter
Ġaggr avation
Ġrobb ed
Ġarchitect ure
' m
b ac
c ant
c ation
c ab
e aling
g at
h h
h y
i k
k ish
m aking
m ax
n et
p te
p ure
p arent
r are
s itting
t re
t akes
w aff
th od
Ġa ve
Ġa la
Ġa do
Ġa unt
Ġs ier
Ġb um
Ġt aylor
as is
Ġp iled
Ġc ried
at os
Ġh at
Ġh ong
Ġo j
Ġo asis
Ġg ary
Ġm ichaels
ll anda
Ġd ar
Ġd are
is an
on ese
Ġl y
it ives
Ġe el
Ġe mily
st ale
ic les
Ġst out
Ġst ove
Ġin fection
Ġin experienced
Ġbe g
Ġex cell
Ġme llow
Ġme ets
ro fo
Ġj us
Ġsh iny
Ġsh ipped
Ġr uss
Ġse pte
Ġli es
Ġsu v
Ġall ows
Ġk ierland
Ġprice less
Ġv ast
Ġv ouch
our se
our bon
il is
il ation
am anda
out side
ist le
app ealing
Ġeven ings
Ġover ha
Ġun cooked
Ġun reasonable
Ġun interested
Ġun appealing
Ġbar nes
ish ings
Ġcan al
Ġhapp iness
Ġtr ays
Ġbr a
Ġro cked
Ġnew er
Ġbu ca
ol is
be an
Ġgr istle
wor ked
ap olo
Ġemp anadas
ss ive
Ġdi pped
Ġgre g
Ġstay cation
nice ly
Ġreview ed
Ġdri ves
li ving
Ġhand ic
pro blem
Ġair y
Ġpri mary
ey e
ord strom
Ġshow room
Ġcut icles
Ġlet ting
Ġexce ssive
Ġwarm ed
Ġpos itives
Ġbro ad
Ġpack ages
br ant
br uschetta
ti ffany
Ġlow e
pleas ed
let cher
Ġcons umer
Ġcons ignment
Ġhospit als
Ġcomm ission
Ġdon na
Ġavoid ed
Ġspr ink
Ġrem ained
urs es
Ġdou g
Ġclo ck
Ġconc ourse
Ġspace s
Ġlay ers
car got
Ġrespect able
Ġsqu ad
Ġgrand mother
of ten
Ġed ges
sat i
temp orary
Ġjohn son
Ġravi olis
Ġburn ing
Ġmot o
Ġbal cony
Ġwax ed
rom at
class y
Ġfle w
Ġvacuum ing
Ġstress ful
Ġtrail er
Ġvol cano
Ġtag s
Ġore o
Ġtherap y
lend id
water ing
Ġrobert o
Ġsquee ze
Ġgoo gle
Ġreput able
Ġpap aya
Ġcouch es
Ġmeant ime
flow ing
Ġrepresent ative
Ġcha os
Ġcir cle
Ġsus pect
Ġqual ities
Ġsymp athetic
smell s
Ġsong s
Ġaccording ly
Ġtechn ique
Ġvis ible
jess ica
Ġsens itive
Ġgather ing
pap illas
Ġawe ful
Ġattr action
Ġpret end
Ġcockro ach
Ġchann els
arri ved
Ġguit ar
present ation
gat oni
Ġsier ra
llanda ise
rofo am
Ġsepte mber
Ġvouch er
Ġoverha ul
d om
d ive
e ating
h old
i ki
j en
j ames
l ou
l icky
m ess
m atch
m ashed
o za
p ull
u gs
w ont
z iki
Ġs illy
re less
Ġf usion
Ġf undido
Ġf letcher
Ġb j
Ġb ait
Ġb ake
Ġp ig
Ġc ass
at ors
at ziki
Ġh unt
Ġo we
en ough
or a
or gon
Ġn ose
Ġl ord
Ġl ane
ve gan
ve ggie
ve ggies
le ep
al ed
Ġha z
Ġst iff
Ġst ones
Ġwi reless
all e
Ġy r
Ġch ipped
Ġch ilis
Ġmy stery
Ġal as
un professional
pp uccino
Ġwh iskey
Ġj ulie
Ġj amaican
Ġas leep
Ġstaff ing
Ġsp lendid
Ġk ale
lo gn
Ġca ppuccino
Ġv enu
Ġjust ify
Ġwould nt
Ġstar ing
Ġover s
Ġover looking
Ġover flowing
Ġun i
Ġun caring
Ġun welcoming
Ġcr ooked
Ġeat ers
mi x
Ġjo kes
Ġbr uce
Ġfla ming
ian e
Ġvisit or
Ġste pping
Ġres cue
Ġhis pan
Ġpart ial
Ġcool est
Ġsc um
Ġact ing
Ġpot stickers
Ġsty rofoam
Ġcont ent
Ġav is
Ġlar ry
Ġcost umes
Ġlet ter
ations hip
mm mmm
Ġbag gage
Ġsk ipped
Ġvi brant
Ġgar licky
Ġbak eries
Ġlas er
Ġsupp er
Ġho llandaise
pre p
Ġla ura
Ġce sar
Ġra ving
Ġgreet er
Ġart isan
Ġju an
ark ins
Ġcolor ing
Ġpain ting
Ġfloor ing
Ġequ al
Ġclub s
Ġclub house
Ġdelight fully
Ġimport ed
Ġrec lin
Ġrec ieved
Ġpost ing
Ġtre asures
Ġtur kish
Ġgrab bing
Ġcover ing
Ġperfection ist
Ġfil m
Ġtour ists
Ġur ban
bec ca
Ġoper ate
Ġrel ationship
sat urday
Ġpharm acist
Ġreception ists
Ġquestion ed
Ġspl ash
Ġfire stone
di ff
Ġult imately
Ġtest ing
Ġinsp ect
Ġdefin etly
Ġcant onese
eth ical
Ġdream s
Ġcompan ions
Ġtail oring
Ġcarr abba
Ġimprove ments
Ġyel per
lect ed
Ġhygien ists
Ġsurround ed
Ġflor al
Ġmir rors
Ġdisplay ed
Ġtherap ists
soup s
Ġreco very
Ġelev ators
Ġinit ially
Ġrose mary
Ġprec ise
Ġtremendous ly
Ġlaund romat
Ġdoc s
Ġpi per
Ġvent ilation
Ġbless ed
Ġunre liable
Ġmold y
Ġvend ors
miss ive
cra ig
Ġreli ef
Ġmater ials
trad er
zo la
Ġallerg ies
Ġshoo ting
Ġcrafts manship
Ġtepp anyaki
Ġteen agers
Ġmunch ies
Ġmap le
Ġmak er
lind a
miche lle
wif i
gher ita
Ġbian co
Ġbree ze
whe ther
Ġcoo per
lap ia
comm un
parent s
orgon zola
logn ese
Ġvenu es
Ġhispan ic
a ut
a ist
c reat
h ert
h ana
h rs
i pp
l ate
m ate
m itted
o thers
p art
p ically
r ub
t ough
u ine
v id
v ictor
w ire
Ġ ]
Ġw ally
Ġs in
Ġs ig
Ġb ump
Ġb orn
Ġb ummer
Ġb ourbon
Ġt une
Ġo un
oo ps
en ch
ll igent
or ia
Ġn iece
is in
Ġl uster
ri al
le mon
Ġre visit
ere o
ar ity
Ġha ha
Ġst ench
el en
