{"<s>":0,"<pad>":1,"</s>":2,"<unk>":3,"<mask>":4,"!":5,"\"":6,"#":7,"$":8,"%":9,"&":10,"'":11,"(":12,")":13,"*":14,"+":15,",":16,"-":17,".":18,"/":19,"0":20,"1":21,"2":22,"3":23,"4":24,"5":25,"6":26,"7":27,"8":28,"9":29,":":30,";":31,"<":32,"=":33,">":34,"?":35,"@":36,"A":37,"B":38,"C":39,"D":40,"E":41,"F":42,"G":43,"H":44,"I":45,"J":46,"K":47,"L":48,"M":49,"N":50,"O":51,"P":52,"Q":53,"R":54,"S":55,"T":56,"U":57,"V":58,"W":59,"X":60,"Y":61,"Z":62,"[":63,"\\":64,"]":65,"^":66,"_":67,"`":68,"a":69,"b":70,"c":71,"d":72,"e":73,"f":74,"g":75,"h":76,"i":77,"j":78,"k":79,"l":80,"m":81,"n":82,"o":83,"p":84,"q":85,"r":86,"s":87,"t":88,"u":89,"v":90,"w":91,"x":92,"y":93,"z":94,"{":95,"|":96,"}":97,"~":98,"¡":99,"¢":100,"£":101,"¤":102,"¥":103,"¦":104,"§":105,"¨":106,"©":107,"ª":108,"«":109,"¬":110,"®":111,"¯":112,"°":113,"±":114,"²":115,"³":116,"´":117,"µ":118,"¶":119,"·":120,"¸":121,"¹":122,"º":123,"»":124,"¼":125,"½":126,"¾":127,"¿":128,"À":129,"Á":130,"Â":131,"Ã":132,"Ä":133,"Å":134,"Æ":135,"Ç":136,"È":137,"É":138,"Ê":139,"Ë":140,"Ì":141,"Í":142,"Î":143,"Ï":144,"Ð":145,"Ñ":146,"Ò":147,"Ó":148,"Ô":149,"Õ":150,"Ö":151,"×":152,"Ø":153,"Ù":154,"Ú":155,"Û":156,"Ü":157,"Ý":158,"Þ":159,"ß":160,"à":161,"á":162,"â":163,"ã":164,"ä":165,"å":166,"æ":167,"ç":168,"è":169,"é":170,"ê":171,"ë":172,"ì":173,"í":174,"î":175,"ï":176,"ð":177,"ñ":178,"ò":179,"ó":180,"ô":181,"õ":182,"ö":183,"÷":184,"ø":185,"ù":186,"ú":187,"û":188,"ü":189,"ý":190,"þ":191,"ÿ":192,"Ā":193,"ā":194,"Ă":195,"ă":196,"Ą":197,"ą":198,"Ć":199,"ć":200,"Ĉ":201,"ĉ":202,"Ċ":203,"ċ":204,"Č":205,"č":206,"Ď":207,"ď":208,"Đ":209,"đ":210,"Ē":211,"ē":212,"Ĕ":213,"ĕ":214,"Ė":215,"ė":216,"Ę":217,"ę":218,"Ě":219,"ě":220,"Ĝ":221,"ĝ":222,"Ğ":223,"ğ":224,"Ġ":225,"ġ":226,"Ģ":227,"ģ":228,"Ĥ":229,"ĥ":230,"Ħ":231,"ħ":232,"Ĩ":233,"ĩ":234,"Ī":235,"ī":236,"Ĭ":237,"ĭ":238,"Į":239,"į":240,"İ":241,"ı":242,"Ĳ":243,"ĳ":244,"Ĵ":245,"ĵ":246,"Ķ":247,"ķ":248,"ĸ":249,"Ĺ":250,"ĺ":251,"Ļ":252,"ļ":253,"Ľ":254,"ľ":255,"Ŀ":256,"ŀ":257,"Ł":258,"ł":259,"Ń":260,"th":261,"Ġa":262,"Ġ.":263,"er":264,"Ġw":265,"the":266,"Ġs":267,"re":268,"Ġi":269,"nd":270,"Ġf":271,"in":272,"ce":273,"Ġthe":274,"Ġb":275,"Ġt":276,"as":277,"Ġp":278,"Ġand":279,"Ġc":280,"at":281,"Ġh":282,"Ġo":283,"Ġg":284,"oo":285,"Ġm":286,"ou":287,"en":288,"ll":289,"or":290,"Ġd":291,"Ġn":292,"Ġ!":293,"es":294,"ed":295,"Ġ,":296,"ing":297,"is":298,"on":299,"Ġl":300,"Ġis":301,"Ġwas":302,"ver":303,"Ġth":304,"it":305,"ood":306,"an":307,"ly":308,"ve":309,"ri":310,"Ġto":311,"om":312,"Ġe":313,"le":314,"st":315,"Ġre":316,"la":317,"ere":318,"ice":319,"ar":320,"ot":321,"reat":322,"ic":323,"al":324,"ut":325,"very":326,"Ġha":327,"Ġst":328,"Ġin":329,"Ġbe":330,"Ġof":331,"ay":332,"Ġit":333,"Ġ'":334,"erv":335,"Ġpla":336,"me":337,"Ġwi":338,"Ġplace":339,"Ġfor":340,"ent":341,"ervice":342,"all":343,"el":344,"Ġfood":345,"Ġthis":346,"Ġgreat":347,"Ġy":348,"Ġservice":349,"ur":350,"um":351,"Ġgood":352,"Ġare":353,"gh":354,"ion":355,"ow":356,"Ġon":357,"et":358,"ac":359,"ast":360,"us":361,"Ġch":362,"ust":363,"Ġyou":364,"num":365,"Ġmy":366,"ir":367,"ld":368,"Ġlo":369,"Ġex":370,"Ġvery":371,"id":372,"ff":373,"end":374,"est":375,"Ġnot":376,"ble":377,"Ġal":378,"Ġwith":379,"Ġat":380,"ad":381,"ke":382,"ch":383,"Ġ_":384,"Ġfri":385,"'t":386,"ally":387,"un":388,"Ġme":389,"Ġwe":390,"ome":391,"pp":392,"Ġhave":393,"ro":394,"ant":395,"ec":396,"Ġan":397,"this":398,"way":399,"ite":400,"Ġwh":401,"so":402,"Ġhere":403,"Ġj":404,"ul":405,"Ġfriend":406,"ous":407,"ould":408,"per":409,"Ġthat":410,"Ġwor":411,"Ġso":412,"one":413,"great":414,"ways":415,"ack":416,"Ġne":417,"aff":418,"Ġwere":419,"com":420,"Ġhad":421,"Ġsh":422,"Ġsa":423,"igh":424,"Ġfriendly":425,"res":426,"Ġdo":427,"ter":428,"Ġti":429,"they":430,"Ġas":431,"Ġam":432,"Ġr":433,"rice":434,"Ġthey":435,"ess":436,"ful":437,"qu":438,"Ġstaff":439,"Ġor":440,"ef":441,"Ġgo":442,"Ġse":443,"Ġbut":444,"Ġalways":445,"Ġfa":446,"Ġlove":447,"Ġli":448,"we":449,"Ġsp":450,"mend":451,"Ġback":452,"commend":453,"os":454,"Ġrecommend":455,"ak":456,"ers":457,"Ġsu":458,"Ġbest":459,"ge":460,"ious":461,"Ġall":462,"ive":463,"Ġk":464,"Ġcom":465,"Ġout":466,"az":467,"ore":468,"ook":469,"thing":470,"Ġwill":471,"Ġreally":472,"ain":473,"Ġdel":474,"able":475,"ick":476,"Ġprice":477,"azing":478,"Ġno":479,"Ġtime":480,"op":481,"ence":482,"and":483,"mp":484,"lo":485,"Ġnice":486,"Ġca":487,"ience":488,"ther":489,"ill":490,"iz":491,"Ġv":492,"he":493,"Ġqu":494,"tion":495,"Ġexper":496,"vor":497,"Ġjust":498,"Ġexperience":499,"ation":500,"icious":501,"Ġdis":502,"Ġget":503,"Ġu":504,"my":505,"Ġthere":506,"our":507,"ty":508,"Ġamazing":509,"ks":510,"Ġwould":511,"efin":512,"Ġab":513,"se":514,"efinite":515,"ate":516,"efinitely":517,"ustom":518,"nt":519,"Ġlike":520,"int":521,"Ġfr":522,"ven":523,"Ġdelicious":524,"Ġcustom":525,"ait":526,"il":527,"Ġpro":528,"Ġco":529,"der":530,"rible":531,"am":532,"Ġtheir":533,"Ġus":534,"ry":535,"cell":536,"Ġever":537,"out":538,"Ġtast":539,"ough":540,"cellent":541,"Ġdid":542,"Ġany":543,"Ġag":544,"oint":545,"wh":546,"Ġone":547,"Ġhas":548,"Ġour":549,"Ġen":550,"Ġwell":551,"Ġwait":552,"Ġtoo":553,"Ġup":554,"Ġrest":555,"Ġevery":556,"ake":557,"ab":558,"ort":559,"elp":560,"Ġorder":561,"ond":562,"Ġbeen":563,"Ġcustomer":564,"Ġloc":565,"urant":566,"lean":567,"ie":568,"aurant":569,"ight":570,"ich":571,"ist":572,"resh":573,"Ġrestaurant":574,"Ġdefinitely":575,"ect":576,"app":577,"Ġagain":578,"Ġalso":579,"Ġsome":580,"Ġyour":581,"Ġstar":582,"izz":583,"Ġclean":584,"ment":585,"Ġfrom":586,"Ġhe":587,"Ġhelp":588,"Ġoff":589,"..":590,"de":591,"Ġpe":592,"ity":593,"ved":594,"Ġri":595,"Ġaw":596,"esome":597,"Ġfresh":598,"Ġpre":599,"Ġ...":600,"oy":601,"izza":602,"wn":603,"now":604,"Ġeven":605,"ress":606,"Ġfavor":607,"ound":608,"ind":609,"Ġthem":610,"Ġcon":611,"Ġman":612,"ighly":613,"Ġwork":614,"Ġover":615,"Ġpizza":616,"ine":617,"Ġbre":618,"Ġde":619,"te":620,"Ġexcellent":621,"red":622,"love":623,"Ġfe":624,"Ġun":625,"Ġfavorite":626,"Ġabout":627,"ag":628,"ard":629,"Ġbar":630,"em":631,"no":632,"ked":633,"Ġ?":634,"ute":635,"osp":636,"Ġcomp":637,"ong":638,"appoint":639,"ople":640,"itt":641,"ish":642,"ost":643,"Ġcr":644,"than":645,"tty":646,"Ġnever":647,"Ġgot":648,"Ġlook":649,"Ġbad":650,"own":651,"she":652,"Ġknow":653,"Ġpeople":654,"Ġprices":655,"if":656,"Ġeat":657,"Ġmin":658,"Ġgu":659,"Ġcan":660,"here":661,"Ġlocation":662,"Ġcould":663,"unch":664,"Ġhapp":665,"Ġdisappoint":666,"ason":667,"mi":668,"ea":669,"ig":670,"uch":671,"Ġworth":672,"Ġph":673,"Ġar":674,"Ġwhat":675,"Ġthan":676,"osphere":677,"eci":678,"icken":679,"mosphere":680,"joy":681,"good":682,"not":683,"orrible":684,"every":685,"ees":686,"onder":687,"Ġcar":688,"Ġ$":689,"Ġdr":690,"Ġve":691,"Ġatmosphere":692,"oom":693,"ct":694,"ade":695,"hi":696,"Ġpretty":697,"lad":698,"Ġper":699,"ings":700,"Ġchicken":701,"ude":702,"sol":703,"Ġsal":704,"Ġhot":705,"urn":706,"Ġjo":707,"but":708,"Ġgoing":709,"Ġawesome":710,"ide":711,"Ġbus":712,"ex":713,"Ġbet":714,"Ġtr":715,"im":716,"Ġby":717,"onderful":718,"Ġapp":719,"best":720,"astic":721,"Ġenjoy":722,"ction":723,"solute":724,"day":725,"ality":726,"other":727,"Ġif":728,"Ġmuch":729,"Ġpar":730,"fect":731,"Ġhelpful":732,"Ġhappy":733,"age":734,"oup":735,"Ġbetter":736,"antastic":737,"Ġmore":738,"Ġbr":739,"leas":740,"Ġfla":741,"ian":742,"ght":743,"Ġcl":744,"ional":745,"ue":746,"Ġsele":747,"food":748,"ca":749,"service":750,"Ġdin":751,"fter":752,"irst":753,"Ġsuper":754,"Ġonly":755,"Ġselection":756,"oor":757,"Ġreason":758,"Ġlunch":759,"Ġro":760,"fast":761,"Ġflavor":762,"mily":763,"Ġser":764,"Ġstore":765,"Ġquality":766,"Ġfamily":767,"ear":768,"ass":769,"Ġwhen":770,"Ġhighly":771,"Ġ-":772,"Ġcome":773,"fess":774,"Ġshe":775,"solutely":776,"ittle":777,"Ġveg":778,"Ġ&":779,"Ġwonderful":780,"ient":781,"Ġatt":782,"Ġter":783,"use":784,"Ġdrin":785,"Ġfast":786,"Ġext":787,"fessional":788,"Ġnew":789,"Ġbur":790,"Ġperfect":791,"Ġworst":792,"Ġjob":793,"Ġlittle":794,"ck":795,"uce":796,"Ġday":797,"Ġbu":798,"Ġguy":799,"Ġdown":800,"utes":801,"Ġminutes":802,"there":803,"Ġordered":804,"ip":805,"Ġmade":806,"isit":807,"ecial":808,"ure":809,"are":810,"wich":811,"Ġsand":812,"Ġown":813,"Ġfantastic":814,"ool":815,"Ġhour":816,"Ġfun":817,"Ġspecial":818,"Ġimp":819,"Ġ)":820,"ol":821,"be":822,"Ġright":823,"Ġnight":824,"Ġway":825,"ies":826,"Ġsm":827,"Ġpleas":828,"enu":829,"Ġte":830,"Ġwho":831,"Ġgive":832,"Ġwant":833,"Ġsandwich":834,"Ġop":835,"Ġvisit":836,"Ġsay":837,"Ġrude":838,"Ġgr":839,"do":840,"ever":841,"Ġspot":842,"fort":843,"Ġexp":844,"Ġother":845,"Ġsalad":846,"iness":847,"ree":848,"Ġfeel":849,"ater":850,"ner":851,"turn":852,"Ġmeal":853,"ail":854,"cent":855,"Ġhow":856,"Ġneed":857,"oney":858,"their":859,"ated":860,"Ġbreak":861,"Ġquick":862,"Ġpl":863,"Ġhorrible":864,"Ġreturn":865,"ix":866,"Ġwent":867,"Ġyear":868,"Ġstars":869,"iew":870,"Ġcare":871,"reme":872,"Ġmake":873,"Ġbo":874,"Ġste":875,"akes":876,"Ġbusiness":877,"Ġ''":878,"fri":879,"Ġcame":880,"Ġher":881,"Ġpor":882,"wor":883,"Ġtake":884,"fe":885,"Ġdisappointed":886,"Ġtasty":887,"ee":888,"Ġafter":889,"Ġtw":890,"ach":891,"Ġwal":892,"Ġmenu":893,"Ġwhich":894,"Ġbreakfast":895,"thank":896,"Ġprofessional":897,"remely":898,"Ġmoney":899,"les":900,"low":901,"Ġhome":902,"gg":903,"Ġroom":904,"Ġtry":905,"Ġeverything":906,"Ġchees":907,"ushi":908,"what":909,"``":910,"Ġcall":911,"ap":912,"over":913,"Ġchar":914,"Ġpho":915,"Ġsaid":916,"Ġemp":917,"Ġtown":918,"Ġtri":919,"tions":920,"Ġaround":921,"Ġsauce":922,"ave":923,"Ġad":924,"ep":925,"Ġfirst":926,"ving":927,"Ġbeca":928,"you":929,"aw":930,"ss":931,"ert":932,"king":933,"Ġsushi":934,"ooked":935,"Ġthough":936,"Ġwr":937,"Ġshop":938,"led":939,"pt":940,"Ġstill":941,"Ġbecause":942,"Ġterrible":943,"Ġtim":944,"Ġdoes":945,"Ġnothing":946,"ably":947,"to":948,"friend":949,"ai":950,"any":951,"Ġcoming":952,"Ġabsolutely":953,"Ġmost":954,"Ġserver":955,"Ġlot":956,"Ġinc":957,"Ġdi":958,"side":959,"edi":960,"excellent":961,"ens":962,"Ġextremely":963,"thanks":964,"Ġtimes":965,"Ġac":966,"Ġ``":967,"always":968,"Ġdes":969,"Ġfind":970,"Ġke":971,"Ġguys":972,"Ġarea":973,"ating":974,"Ġsure":975,"sist":976,"Ġgre":977,"Ġattent":978,"Ġloved":979,"ican":980,"Ġsee":981,"Ġmo":982,"highly":983,"lar":984,"Ġfar":985,"Ġreasonable":986,"Ġcheese":987,"ually":988,"ull":989,"act":990,"definitely":991,"Ġchec":992,"Ġimpress":993,"erson":994,"for":995,"ber":996,"Ġbig":997,"everything":998,"Ġwee":999,"Ġstay":1000,"ile":1001,"Ġlong":1002,"Ġok":1003,"Ġseem":1004,"Ġold":1005,"ese":1006,"stand":1007,"Ġdinner":1008,"Ġshould":1009,"that":1010,"Ġanother":1011,"Ġdeli":1012,"Ġdeal":1013,"ger":1014,"Ġ(":1015,"bo":1016,"Ġdone":1017,"Ġent":1018,"ame":1019,"ffee":1020,"ne":1021,"oc":1022,"just":1023,"Ġel":1024,"Ġlef":1025,"Ġleft":1026,"Ġdrinks":1027,"art":1028,"view":1029,"less":1030,"Ġkind":1031,"ting":1032,"loy":1033,"will":1034,"Ġbread":1035,"nice":1036,"Ġthin":1037,"Ġres":1038,"Ġreview":1039,"ari":1040,"Ġperson":1041,"Ġelse":1042,"Ġdish":1043,"onest":1044,"Ġyears":1045,"ular":1046,"Ġmeat":1047,"Ġbla":1048,"Ġhis":1049,"iful":1050,"sel":1051,"Ġlast":1052,"Ġanyone":1053,"Ġmex":1054,"Ġcoffee":1055,"Ġtaste":1056,"Ġtwo":1057,"fore":1058,"ts":1059,"Ġtop":1060,"ose":1061,"Ġenjoyed":1062,"Ġsteak":1063,"Ġcour":1064,"Ġswe":1065,"Ġnow":1066,"Ġfound":1067,"asy":1068,"how":1069,"Ġsat":1070,"also":1071,"Ġkid":1072,"Ġbefore":1073,"Ġroll":1074,"Ġsmall":1075,"Ġdri":1076,"ang":1077,"Ġpat":1078,"Ġmexican":1079,"sa":1080,"Ġbeer":1081,"Ġemploy":1082,"imp":1083,"ady":1084,"Ġtook":1085,"Ġsoup":1086,"Ġdec":1087,"Ġstu":1088,"Ġaway":1089,"Ġfriends":1090,"overall":1091,"Ġattentive":1092,"utiful":1093,"Ġeveryone":1094,"uge":1095,"ately":1096,"Ġsweet":1097,"ulous":1098,"Ġimpressed":1099,"ont":1100,"sistent":1101,"Ġmar":1102,"ris":1103,"uthe":1104,"Ġthing":1105,"staff":1106,"ntic":1107,"uthentic":1108,"cks":1109,"ative":1110,"Ġtasted":1111,"amazing":1112,"Ġmanag":1113,"Ġmany":1114,"Ġpr":1115,"price":1116,"Ġwo":1117,"Ġtac":1118,"awesome":1119,"Ġcas":1120,"Ġvegas":1121,"ato":1122,"Ġpleasant":1123,"Ġle":1124,"Ġoffice":1125,"Ġref":1126,"li":1127,"Ġknowled":1128,"ount":1129,"self":1130,"Ġpast":1131,"most":1132,"really":1133,"av":1134,"worst":1135,"Ġweek":1136,"ance":1137,"Ġplaces":1138,"Ġpart":1139,"su":1140,"Ġ:":1141,"redi":1142,"del":1143,"where":1144,"nder":1145,"friendly":1146,"ves":1147,"Ġboth":1148,"lot":1149,"Ġcold":1150,"Ġtreat":1151,"Ġhotel":1152,"Ġthen":1153,"Ġwaitress":1154,"Ġcool":1155,"Ġthr":1156,"Ġchin":1157,"Ġsur":1158,"Ġpoor":1159,"Ġbea":1160,"aking":1161,"horrible":1162,"enix":1163,"its":1164,"Ġwings":1165,"Ġrice":1166,"Ġunder":1167,"Ġsc":1168,"Ġcomfort":1169,"Ġlocal":1170,"icy":1171,"Ġanything":1172,"Ġreg":1173,"standing":1174,"esp":1175,"Ġhand":1176,"Ġdecent":1177,"Ġrep":1178,"Ġphoenix":1179,"Ġrecommended":1180,"Ġslow":1181,"ans":1182,"Ġrece":1183,"bably":1184,"Ġemployees":1185,"Ġawful":1186,"Ġauthentic":1187,"Ġwhy":1188,"Ġcompany":1189,"Ġmus":1190,"Ġact":1191,"bur":1192,"Ġfin":1193,"ning":1194,"ub":1195,"Ġcheck":1196,"arm":1197,"ross":1198,"Ġpa":1199,"Ġcomple":1200,"Ġsomething":1201,"Ġwrong":1202,"ange":1203,"Ġsuch":1204,"opp":1205,"Ġhim":1206,"Ġfries":1207,"Ġbit":1208,"Ġchinese":1209,"Ġhigh":1210,"Ġhonest":1211,"Ġbeing":1212,"Ġfl":1213,"Ġfish":1214,"Ġnail":1215,"ra":1216,"Ġfried":1217,"room":1218,"Ġcre":1219,"everyone":1220,"ensive":1221,"Ġhuge":1222,"Ġhair":1223,"Ġincredi":1224,"Ġhard":1225,"mo":1226,"Ġcooked":1227,"pris":1228,"when":1229,"Ġdiff":1230,"Ġmanager":1231,"Ġbeautiful":1232,"Ġsoo":1233,"Ġpriced":1234,"Ġbland":1235,"Ġthese":1236,"Ġtold":1237,"Ġpot":1238,"iously":1239,"Ġtried":1240,"xt":1241,"Ġthink":1242,"Ġchip":1243,"Ġnext":1244,"oice":1245,"ding":1246,"Ġsec":1247,"iss":1248,"Ġrun":1249,"Ġz":1250,"Ġlooked":1251,"Ġconsistent":1252,"ire":1253,"Ġsty":1254,"ecially":1255,"pro":1256,"Ġchea":1257,"Ġuse":1258,"Ġportions":1259,"ouse":1260,"Ġhours":1261,"Ġits":1262,"ither":1263,"Ġlea":1264,"blem":1265,"Ġwalked":1266,"Ġfew":1267,"Ġcont":1268,"Ġair":1269,"Ġegg":1270,"Ġpri":1271,"Ġpay":1272,"Ġdry":1273,"Ġtoday":1274,"Ġexpect":1275,"Ġfree":1276,"especially":1277,"bs":1278,"Ġproblem":1279,"Ġkids":1280,"Ġserv":1281,"Ġwaste":1282,"Ġenough":1283,"Ġap":1284,"air":1285,"Ġlooking":1286,"Ġreal":1287,"Ġquite":1288,"however":1289,"Ġknowledge":1290,"Ġfull":1291,"alian":1292,"Ġwhole":1293,"Ġsurpris":1294,"ted":1295,"Ġchoice":1296,"Ġitalian":1297,"Ġsalsa":1298,"Ġmedi":1299,"Ġeff":1300,"Ġbeef":1301,"oid":1302,"Ġtot":1303,"Ġgave":1304,"Ġkeep":1305,"gust":1306,"ten":1307,"Ġav":1308,"Ġcomplete":1309,"Ġasked":1310,"Ġowner":1311,"ign":1312,"ey":1313,"Ġstuff":1314,"Ġpick":1315,"Ġcustomers":1316,"Ġwater":1317,"Ġdiffer":1318,"rimp":1319,"Ġoffer":1320,"ary":1321,"Ġdrink":1322,"Ġcomfortable":1323,"Ġitem":1324,"by":1325,"bly":1326,"band":1327,"Ġbusy":1328,"Ġmakes":1329,"usband":1330,"Ġsimp":1331,"ized":1332,"ord":1333,"Ġinside":1334,"bor":1335,"Ġfan":1336,"dic":1337,"ale":1338,"Ġcheap":1339,"ought":1340,"had":1341,"up":1342,"delicious":1343,"Ġinter":1344,"Ġdog":1345,"Ġoutstanding":1346,"Ġopen":1347,"Ġfair":1348,"wow":1349,"Ġespecially":1350,"atch":1351,"Ġend":1352,"Ġsandwiches":1353,"Ġice":1354,"Ġtable":1355,"Ġwel":1356,"Ġmust":1357,"Ġsame":1358,"Ġburger":1359,"Ġshow":1360,"Ġcut":1361,"Ġgi":1362,"Ġlater":1363,"Ġside":1364,"Ġlar":1365,"Ġdisappointing":1366,"first":1367,"Ġthrough":1368,"ince":1369,"irty":1370,"nter":1371,"Ġthings":1372,"fortun":1373,"Ġsalon":1374,"Ġshrimp":1375,"Ġhusband":1376,"well":1377,"ption":1378,"rit":1379,"ult":1380,"ables":1381,"Ġrolls":1382,"Ġknowledgeable":1383,"ise":1384,"Ġcost":1385,"ions":1386,"Ġwine":1387,"ci":1388,"ctor":1389,"Ġtell":1390,"lotte":1391,"Ġval":1392,"Ġchips":1393,"Ġlet":1394,"ual":1395,"icient":1396,"Ġexce":1397,"ocre":1398,"ations":1399,"ero":1400,"Ġlack":1401,"Ġinto":1402,"oh":1403,"ighbor":1404,"Ġfre":1405,"Ġpotato":1406,"terrible":1407,"Ġcharlotte":1408,"ener":1409,"ny":1410,"Ġmon":1411,"Ġput":1412,"Ġcalled":1413,"Ġeasy":1414,"Ġneighbor":1415,"ons":1416,"Ġcor":1417,"Ġthai":1418,"Ġdrive":1419,"Ġdifferent":1420,"diculous":1421,"Ġtal":1422,"Ġyum":1423,"super":1424,"Ġwhere":1425,"uly":1426,"Ġgem":1427,"Ġtacos":1428,"absolutely":1429,"ded":1430,"uck":1431,"Ġinst":1432,"Ġactually":1433,"mell":1434,"gusting":1435,"Ġlarge":1436,"Ġpoint":1437,"Ġused":1438,"Ġvari":1439,"fortunately":1440,"Ġdishes":1441,"mm":1442,"gan":1443,"these":1444,"Ġmay":1445,"Ġbag":1446,"irl":1447,"ients":1448,"gers":1449,"Ġprobably":1450,"Ġalmost":1451,"Ġclass":1452,"Ġbas":1453,"Ġcook":1454,"Ġhouse":1455,"ender":1456,"gative":1457,"would":1458,"Ġgetting":1459,"Ġdirty":1460,"Ġappet":1461,"Ġdecor":1462,"Ġefficient":1463,"alley":1464,"Ġregular":1465,"hood":1466,"Ġwarm":1467,"ugh":1468,"Ġspicy":1469,"both":1470,"Ġcoup":1471,"Ġoptions":1472,"que":1473,"Ġpos":1474,"Ġpie":1475,"elt":1476,"Ġburrit":1477,"Ġsmell":1478,"Ġreviews":1479,"Ġsk":1480,"Ġgroup":1481,"arly":1482,"pl":1483,"Ġpol":1484,"Ġwife":1485,"Ġvalley":1486,"Ġlife":1487,"after":1488,"Ġmonth":1489,"io":1490,"Ġwhile":1491,"vers":1492,"ize":1493,"Ġmediocre":1494,"Ġitems":1495,"Ġgirl":1496,"Ġbuy":1497,"fi":1498,"ived":1499,"ared":1500,"pe":1501,"Ġworse":1502,"Ġamb":1503,"Ġprod":1504,"Ġneighborhood":1505,"burgh":1506,"never":1507,"Ġfill":1508,"Ġgener":1509,"edic":1510,"Ġwaiting":1511,"Ġfront":1512,"Ġeither":1513,"Ġrestaurants":1514,"get":1515,"Ġdining":1516,"itts":1517,"Ġless":1518,"ild":1519,"ash":1520,"Ġreceived":1521,"Ġbl":1522,"Ġtrip":1523,"ittsburgh":1524,"port":1525,"Ġspecials":1526,"Ġcourse":1527,"ety":1528,"Ġvi":1529,"Ġeating":1530,"Ġneeds":1531,"Ġmusic":1532,"urch":1533,"then":1534,"Ġleave":1535,"Ġstand":1536,"Ġcream":1537,"Ġdoctor":1538,"Ġprom":1539,"Ġpittsburgh":1540,"Ġvalue":1541,"Ġappetiz":1542,"Ġaccom":1543,"got":1544,"Ġsince":1545,"agement":1546,"Ġzero":1547,"Ġstop":1548,"ath":1549,"Ġstyle":1550,"Ġwish":1551,"ique":1552,"orry":1553,"Ġentire":1554,"go":1555,"Ġbring":1556,"even":1557,"Ġcompletely":1558,"Ġbro":1559,"rill":1560,"iance":1561,"Ġdelivery":1562,"Ġbuff":1563,"come":1564,"Ġtea":1565,"Ġstr":1566,"Ġthought":1567,"Ġbart":1568,"ery":1569,"Ġlooks":1570,"Ġset":1571,"Ġworking":1572,"Ġperfectly":1573,"sh":1574,"verage":1575,"Ġsch":1576,"Ġpack":1577,"Ġvariety":1578,"Ġairport":1579,"Ġgar":1580,"mber":1581,"Ġarri":1582,"Ġsl":1583,"ush":1584,"Ġgets":1585,"Ġextra":1586,"went":1587,"Ġclose":1588,"dy":1589,"ott":1590,"Ġwaiter":1591,"Ġappoint":1592,"nothing":1593,"Ġlive":1594,"ily":1595,"Ġonce":1596,"alf":1597,"Ġton":1598,"itive":1599,"lax":1600,"ext":1601,"Ġbill":1602,"unfortunately":1603,"Ġburgers":1604,"ison":1605,"essert":1606,"Ġdisgusting":1607,"Ġmess":1608,"Ġlist":1609,"cess":1610,"Ġdays":1611,"lish":1612,"Ġoverall":1613,"Ġserved":1614,"Ġyummy":1615,"gar":1616,"ward":1617,"Ġridiculous":1618,"Ġusually":1619,"Ġexpensive":1620,"Ġfelt":1621,"Ġbak":1622,"Ġmad":1623,"Ġlas":1624,"Ġview":1625,"Ġcrow":1626,"br":1627,"anc":1628,"Ġwanted":1629,"Ġappointment":1630,"Ġdress":1631,"Ġsever":1632,"Ġliked":1633,"Ġsupp":1634,"yond":1635,"Ġaff":1636,"Ġveget":1637,"Ġoutside":1638,"Ġnails":1639,"ertain":1640,"lain":1641,"Ġresp":1642,"Ġleast":1643,"wait":1644,"Ġgross":1645,"Ġlate":1646,"Ġrelax":1647,"Ġsatis":1648,"Ġwithout":1649,"Ġflavorful":1650,"Ġsecond":1651,"Ġturn":1652,"form":1653,"Ġtotally":1654,"Ġnotch":1655,"Ġafford":1656,"ti":1657,"ounter":1658,"loved":1659,"Ġincredible":1660,"mod":1661,"Ġsoon":1662,"some":1663,"Ġtruly":1664,"bq":1665,"Ġnor":1666,"Ġphone":1667,"Ġmanagement":1668,"lic":1669,"idd":1670,"Ġtables":1671,"Ġmiss":1672,"Ġho":1673,"Ġind":1674,"Ġhalf":1675,"Ġdessert":1676,"Ġcomes":1677,"Ġpork":1678,"Ġaccommod":1679,"wo":1680,"Ġwelcom":1681,"Ġgone":1682,"Ġsub":1683,"isp":1684,"Ġaverage":1685,"appy":1686,"Ġowners":1687,"els":1688,"Ġcrisp":1689,"lace":1690,"alth":1691,"Ġseason":1692,"Ġfix":1693,"Ġunique":1694,"Ġfine":1695,"Ġbeyond":1696,"Ġline":1697,"Ġate":1698,"Ġspa":1699,"made":1700,"Ġcontin":1701,"Ġcrust":1702,"cc":1703,"pre":1704,"Ġbel":1705,"Ġpleased":1706,"ase":1707,"Ġbbq":1708,"Ġlight":1709,"uct":1710,"Ġgy":1711,"Ġexc":1712,"ft":1713,"si":1714,"man":1715,"Ġadd":1716,"Ġpasta":1717,"Ġdent":1718,"outh":1719,"Ġattit":1720,"Ġaffordable":1721,"was":1722,"ates":1723,"omen":1724,"uring":1725,"Ġbeans":1726,"opped":1727,"llar":1728,"Ġla":1729,"olo":1730,"ser":1731,"Ġwaited":1732,"Ġgl":1733,"Ġce":1734,"Ġty":1735,"Ġmist":1736,"eless":1737,"Ġempty":1738,"Ġprep":1739,"Ġseemed":1740,"Ne":1741,"Ġlow":1742,"Ġdeliver":1743,"Ġreturning":1744,"Ġsomeone":1745,"Ġseveral":1746,"Ġsit":1747,"Ġeach":1748,"ia":1749,"Ġexception":1750,"cept":1751,"wonderful":1752,"Ġyelp":1753,"Ġmain":1754,"Ġbrought":1755,"opping":1756,"Ġest":1757,"umm":1758,"Ġ;":1759,"ove":1760,"uts":1761,"Ġambiance":1762,"dr":1763,"Ġgrill":1764,"Ġwash":1765,"asty":1766,"ieve":1767,"Ġwed":1768,"Ġsad":1769,"Ġfinish":1770,"Ġproduct":1771,"Ġwatch":1772,"Ġapolo":1773,"Ġbuffet":1774,"cy":1775,"Ġnood":1776,"professional":1777,"gin":1778,"Ġboy":1779,"ited":1780,"Ġdep":1781,"rooms":1782,"ket":1783,"Ġwalk":1784,"Ġsol":1785,"Ġdoing":1786,"Ġlady":1787,"fantastic":1788,"atter":1789,"Ġdoor":1790,"priced":1791,"itas":1792,"Ġokay":1793,"Ġchange":1794,"pleas":1795,"teous":1796,"Ġsimple":1797,"reci":1798,"prices":1799,"redients":1800,"Ġing":1801,"Ġmadison":1802,"ok":1803,"Ġconsistently":1804,"Ġsurprised":1805,"co":1806,"Ġtwice":1807,"Ġbelieve":1808,"ned":1809,"Ġprov":1810,"Ġdate":1811,"Ġlots":1812,"ition":1813,"vent":1814,"Ġappreci":1815,"Ġservers":1816,"Ġpurch":1817,"Ġcur":1818,"Ġtom":1819,"Ġincredibly":1820,"Ġsign":1821,"Ġra":1822,"ud":1823,"Ġcard":1824,"Ġattitude":1825,"let":1826,"ird":1827,"Ġneeded":1828,"Ġhands":1829,"Ġburrito":1830,"avoid":1831,"Ġmor":1832,"Ġcute":1833,"ory":1834,"Ġguess":1835,"Ġfac":1836,"Ġenv":1837,"Ġthanks":1838,"Ġseems":1839,"Ġmistake":1840,"Ġreme":1841,"Ġgreet":1842,"Ġthree":1843,"Ġingredients":1844,"enty":1845,"Ġprompt":1846,"sp":1847,"gr":1848,"Ġmaking":1849,"Ġkept":1850,"Ġask":1851,"Ġstart":1852,"Ġsize":1853,"Ġabove":1854,"Ġshort":1855,"Ġcourteous":1856,"llow":1857,"Ġvegg":1858,"Ġduring":1859,"ides":1860,"Ġtaco":1861,"Ġenvir":1862,"Ġ1":1863,"Ġname":1864,"onment":1865,"nch":1866,"Ġago":1867,"rip":1868,"need":1869,"Ġplay":1870,"pretty":1871,"Ġenvironment":1872,"Ġquickly":1873,"bad":1874,"cooked":1875,"Ġelsewhere":1876,"Ġbed":1877,"ider":1878,"Ġ--":1879,"Ġcharge":1880,"itch":1881,"Ġann":1882,"Ġinterest":1883,"Ġsund":1884,"Ġapolog":1885,"oon":1886,"Ġreasonably":1887,"Ġowned":1888,"Ġportion":1889,"Ġbath":1890,"Ġclos":1891,"ospit":1892,"Ġpaid":1893,"dis":1894,"ooth":1895,"Ġfab":1896,"Ġcons":1897,"fied":1898,"too":1899,"Ġrecent":1900,"Ġhappen":1901,"Ġparking":1902,"arely":1903,"artment":1904,"ead":1905,"Ġhaving":1906,"Ġaccommodating":1907,"Ġpiece":1908,"Ġchang":1909,"why":1910,"Ġwelcoming":1911,"Ġhospit":1912,"Ġcomm":1913,"ew":1914,"til":1915,"oke":1916,"Ġseen":1917,"Ġdisappointment":1918,"did":1919,"more":1920,"Ġloves":1921,"Ġart":1922,"Ġinform":1923,"Ġseating":1924,"ye":1925,"Ġsalads":1926,"Ġsea":1927,"Ġthank":1928,"Ġteam":1929,"ung":1930,"Ġorgan":1931,"ablish":1932,"Ġdon":1933,"iter":1934,"Ġpolite":1935,"used":1936,"keep":1937,"lor":1938,"Ġtrying":1939,"Ġestablish":1940,"line":1941,"pped":1942,"cing":1943,"con":1944,"Ġpool":1945,"hip":1946,"Ġchoices":1947,"Ġoften":1948,"Ġtaking":1949,"Ġhate":1950,"Ġpass":1951,"Ġoil":1952,"right":1953,"Ġsucks":1954,"airs":1955,"Ġremember":1956,"Ġplus":1957,"Ġsmi":1958,"Ġcounter":1959,"Ġavoid":1960,"Ġarrived":1961,"ical":1962,"such":1963,"Ġtip":1964,"Ġsales":1965,"Ġgreen":1966,"Ġfinally":1967,"ention":1968,"arent":1969,"Ġestablishment":1970,"sw":1971,"Ġhit":1972,"needless":1973,"perfect":1974,"Ġsolid":1975,"thers":1976,"Ġjoint":1977,"Ġtreated":1978,"Ġlost":1979,"Ġdollar":1980,"Ġrooms":1981,"Ġweekend":1982,"Ġcouple":1983,"Ġmorning":1984,"Ġbow":1985,"Ġmom":1986,"chi":1987,"zon":1988,"Ġamount":1989,"Ġtonight":1990,"Ġju":1991,"Ġnegative":1992,"Ġuntil":1993,"Ġquest":1994,"Ġtastes":1995,"Ġ%":1996,"Ġbowl":1997,"Ġthose":1998,"Ġhealth":1999,"idden":2000,"Ġeaten":2001,"Ġmention":2002,"Ġyet":2003,"Ġansw":2004,"Ġhelped":2005,"Ġconf":2006,"worth":2007,"ness":2008,"oot":2009,"order":2010,"Ġitself":2011,"Ġgreasy":2012,"may":2013,"Ġcake":2014,"exp":2015,"Ġpres":2016,"Ġcal":2017,"orough":2018,"Ġpacked":2019,"Ġred":2020,"ark":2021,"Ġstre":2022,"Ġpatient":2023,"Ġprepared":2024,"Ġcle":2025,"Ġem":2026,"Ġparty":2027,"Ġdisc":2028,"Ġpatio":2029,"Ġmem":2030,"Ġtrust":2031,"ines":2032,"Ġspend":2033,"Ġunprofessional":2034,"Ġsunday":2035,"und":2036,"als":2037,"ets":2038,"ided":2039,"Ġworks":2040,"Ġexceptional":2041,"Ġmyself":2042,"Ġmargar":2043,"ita":2044,"ection":2045,"comp":2046,"tr":2047,"Ġson":2048,"Ġrent":2049,"Ġbeh":2050,"Ġbrunch":2051,"Ġfabulous":2052,"Ġsmile":2053,"Ġbother":2054,"Ġtech":2055,"Ġterri":2056,"Ġmoved":2057,"gn":2058,"urday":2059,"Ġplate":2060,"still":2061,"antly":2062,"Ġspr":2063,"Ġfacil":2064,"Ġshopping":2065,"Ġdesk":2066,"Ġhell":2067,"Ġfrench":2068,"Ġmac":2069,"Ġlou":2070,"Ġpanc":2071,"Ġfact":2072,"Ġpotatoes":2073,"Ġcaring":2074,"Ġmeals":2075,"Ġpossi":2076,"Ġunderstand":2077,"Ġthorough":2078,"clean":2079,"Ġspe":2080,"Ġpedic":2081,"Ġcity":2082,"new":2083,"fresh":2084,"Ġevening":2085,"Ġincl":2086,"Ġhost":2087,"Ġtrue":2088,"bu":2089,"enomen":2090,"Ġdro":2091,"Ġcolor":2092,"enomenal":2093,"enders":2094,"Ġsaturday":2095,"rect":2096,"Ġlob":2097,"Ġvibe":2098,"maybe":2099,"Ġstrip":2100,"Ġgarlic":2101,"tot":2102,"ili":2103,"Ġsimply":2104,"Ġmush":2105,"Ġpain":2106,"ior":2107,"Ġappetizer":2108,"Ġglass":2109,"bv":2110,"Ġchain":2111,"Ġhowever":2112,"enjoy":2113,"itting":2114,"custom":2115,"fic":2116,"Ġsorry":2117,"ully":2118,"bre":2119,"ills":2120,"Ġordering":2121,"Ġbook":2122,"Ġsto":2123,"Ġwedding":2124,"Ġoutd":2125,"probably":2126,"Ġbartender":2127,"par":2128,"acon":2129,"Ġanywhere":2130,"Ġoverpriced":2131,"ughter":2132,"iet":2133,"Ġran":2134,"Ġord":2135,"Ġseafood":2136,"Ġhang":2137,"Ġhidden":2138,"Ġcontinue":2139,"zona":2140,"happy":2141,"Ġmass":2142,"ouch":2143,"Ġstayed":2144,"Ġeggs":2145,"ready":2146,"ats":2147,"Ġsatisfied":2148,"aughter":2149,"ds":2150,"fr":2151,"Ġabsolute":2152,"Ġweeks":2153,"customer":2154,"lots":2155,"iterally":2156,"mon":2157,"Ġdive":2158,"Ġcra":2159,"Ġnoodles":2160,"rees":2161,"Ġpepp":2162,"ically":2163,"time":2164,"Ġalready":2165,"Ġadv":2166,"Ġfriday":2167,"Ġpricey":2168,"aila":2169,"Ġta":2170,"Ġhung":2171,"Ġglad":2172,"Ġnear":2173,"Ġslice":2174,"Ġavaila":2175,"Ġari":2176,"Ġarizona":2177,"Ġrequ":2178,"Ġservices":2179,"azy":2180,"Ġmonths":2181,"Ġstreet":2182,"alls":2183,"ggest":2184,"body":2185,"Ġcrispy":2186,"ored":2187,"Ġanswer":2188,"Ġmean":2189,"Ġdogs":2190,"Ġmaybe":2191,"Ġschool":2192,"Ġbarely":2193,"Ġready":2194,"ump":2195,"eck":2196,"zen":2197,"Ġbeers":2198,"Ġcrab":2199,"Ġcrap":2200,"irth":2201,"Ġsuggest":2202,"Ġserve":2203,"chilad":2204,"Ġdet":2205,"Ġins":2206,"Ġyourself":2207,"Ġhairc":2208,"Ġknows":2209,"Ġseriously":2210,"Ġconsider":2211,"Ġothers":2212,"another":2213,"Ġplenty":2214,"cked":2215,"Ġbirth":2216,"Ġtort":2217,"Ġhop":2218,"Ġdaughter":2219,"ster":2220,"Ġgoes":2221,"plus":2222,"seriously":2223,"Ġcond":2224,"bers":2225,"yes":2226,"Ġworld":2227,"Ġavailable":2228,"Ġdetail":2229,"ral":2230,"Ġtotal":2231,"Ġwar":2232,"Ġbacon":2233,"Ġproper":2234,"ceptable":2235,"Ġbott":2236,"Ġchild":2237,"Ġsalty":2238,"Ġinstead":2239,"Ġphenomenal":2240,"icular":2241,"Ġanim":2242,"Ġhomemade":2243,"Ġoffered":2244,"Ġgenerous":2245,"ike":2246,"iting":2247,"ane":2248,"omet":2249,"Ġtomato":2250,"Ġbehind":2251,"Ġquiet":2252,"Ġtasteless":2253,"Ġenchilad":2254,"only":2255,"Ġear":2256,"Ġconven":2257,"Ġparticular":2258,"Ġdentist":2259,"Ġpancakes":2260,"Ġbirthday":2261,"rew":2262,"Ġide":2263,"poor":2264,"uin":2265,"Ġrecently":2266,"Ġchef":2267,"Ġboyfriend":2268,"Ġimm":2269,"Ġcertain":2270,"Ġsour":2271,"Ġsing":2272,"Ġsick":2273,"aken":2274,"Ġtalk":2275,"orn":2276,"Ġgyro":2277,"ired":2278,"ures":2279,"Ġrush":2280,"Ġfeeling":2281,"Ġnum":2282,"Ġtoast":2283,"Ġorders":2284,"Ġstick":2285,"Ġexperienced":2286,"dale":2287,"Ġgif":2288,"Ġfilling":2289,"Ġhospital":2290,"Ġreserv":2291,"zy":2292,"Ġsuperb":2293,"Ġtender":2294,"Ġseated":2295,"Ġattention":2296,"ph":2297,"Ġocc":2298,"Ġrather":2299,"ged":2300,"Ġstarted":2301,"Ġpract":2302,"Ġinteresting":2303,"Ġcommun":2304,"Ġtaken":2305,"ith":2306,"Ġexperiences":2307,"while":2308,"Ġscot":2309,"Ġnasty":2310,"Ġlovely":2311,"ames":2312,"Ġfloor":2313,"expensive":2314,"tsdale":2315,"Ġturned":2316,"Ġtakes":2317,"Ġmix":2318,"Ġhead":2319,"Ġpersonable":2320,"itchen":2321,"ino":2322,"Ġtasting":2323,"Ġpositive":2324,"honest":2325,"oose":2326,"Ġcasual":2327,"Ġdonuts":2328,"Ġma":2329,"Ġoption":2330,"fun":2331,"Ġflow":2332,"Ġbite":2333,"Ġnotice":2334,"ada":2335,"Ġkitchen":2336,"oli":2337,"Ġexplain":2338,"Negative":2339,"uff":2340,"ank":2341,"Ġeye":2342,"Ġread":2343,"ocol":2344,"Ġflavors":2345,"Ġfacility":2346,"big":2347,"place":2348,"Ġpic":2349,"ggy":2350,"Ġfo":2351,"Ġstopped":2352,"ownt":2353,"like":2354,"Ġpricing":2355,"Ġgiven":2356,"Ġpedicure":2357,"Ġinclu":2358,"owntown":2359,"Ġhor":2360,"Ġdowntown":2361,"Ġchili":2362,"please":2363,"bviously":2364,"ister":2365,"Ġamer":2366,"illa":2367,"Ġups":2368,"Ġtyp":2369,"Ġscottsdale":2370,"nam":2371,"Ġtouch":2372,"Ġmil":2373,"Ġdam":2374,"Ġplan":2375,"ial":2376,"Ġsitting":2377,"Ġfro":2378,"Ġdressing":2379,"Ġannoy":2380,"Ġequ":2381,"Ġrem":2382,"Ġexact":2383,"Ġbutter":2384,"ands":2385,"Ġign":2386,"enny":2387,"Ġinv":2388,"ustr":2389,"Ġrating":2390,"Ġtrain":2391,"Ġbaked":2392,"bucks":2393,"Ġori":2394,"Ġbagels":2395,"Ġstandard":2396,"urs":2397,"Ġpop":2398,"ense":2399,"Ġsaus":2400,"Ġchocol":2401,"ordered":2402,"Ġdou":2403,"ites":2404,"Ġwelcome":2405,"gable":2406,"fy":2407,"his":2408,"uture":2409,"eah":2410,"Ġplease":2411,"Ġopin":2412,"ler":2413,"sad":2414,"Ġcrowded":2415,"Ġdelivered":2416,"Ġhaircut":2417,"ming":2418,"por":2419,"Ġfuture":2420,"Ġ2":2421,"Ġaz":2422,"gether":2423,"Ġcup":2424,"Ġsoggy":2425,"iled":2426,"Ġcashi":2427,"sorry":2428,"ys":2429,"Ġearly":2430,"Ġspent":2431,"Ġclub":2432,"Ġbox":2433,"Ġconvenient":2434,"Ġcu":2435,"att":2436,"amb":2437,"Ġmins":2438,"Ġsmooth":2439,"bea":2440,"Ġchance":2441,"Ġloud":2442,"Ġrequest":2443,"Ġevent":2444,"Ġforward":2445,"Ġstarbucks":2446,"Ġenjoyable":2447,"Ġvisiting":2448,"ton":2449,"Ġlad":2450,"Ġdelight":2451,"Ġproducts":2452,"Ġladies":2453,"Ġcount":2454,"Ġmall":2455,"Ġwind":2456,"Ġass":2457,"Ġpersonal":2458,"Ġimport":2459,"Ġdesert":2460,"Ġknowledgable":2461,"Ġopinion":2462,"rude":2463,"Ġgame":2464,"Ġmet":2465,"vel":2466,"Ġwhite":2467,"Ġcertainly":2468,"Ġvegetari":2469,"Ġcab":2470,"Ġovercooked":2471,"Ġbartenders":2472,"Ġimmedi":2473,"Ġminute":2474,"wise":2475,"Ġclo":2476,"ummer":2477,"Ġchocolate":2478,"eat":2479,"Ġome":2480,"Ġpossible":2481,"Ġaut":2482,"Ġfrustr":2483,"Ġterrific":2484,"Ġpepper":2485,"Ġcreat":2486,"ities":2487,"olks":2488,"Ġlu":2489,"aster":2490,"Ġspice":2491,"orts":2492,"Ġrelaxing":2493,"Ġgrilled":2494,"sue":2495,"itional":2496,"Ġanymore":2497,"ments":2498,"came":2499,"Ġfore":2500,"Ġvet":2501,"Ġcrowd":2502,"Ġorganized":2503,"with":2504,"Ġmind":2505,"lam":2506,"Ġfunny":2507,"Ġgiving":2508,"Ġdollars":2509,"ara":2510,"Ġplain":2511,"comfort":2512,"Ġhear":2513,"beautiful":2514,"Ġliterally":2515,"Ġissue":2516,"Ġrate":2517,"Ġoccas":2518,"simp":2519,"Ġable":2520,"Ġtopp":2521,"Ġinexpensive":2522,"Ġonion":2523,"Ġdiner":2524,"Ġim":2525,"Ġtogether":2526,"Ġbell":2527,"Ġsalmon":2528,"ues":2529,"Ġwonder":2530,"Ġfour":2531,"isc":2532,"Ġeng":2533,"Ġlonger":2534,"hill":2535,"Ġsent":2536,"orge":2537,"Ġonline":2538,"Ġconc":2539,"Ġsurprise":2540,"don":2541,"Ġwin":2542,"Ġchoose":2543,"ester":2544,"Ġribs":2545,"Ġended":2546,"Ġgreeted":2547,"disappoint":2548,"Ġhealthy":2549,"Ġfrozen":2550,"ole":2551,"arently":2552,"Ġimmediately":2553,"which":2554,"Ġpark":2555,"Ġlacking":2556,"Ġworkers":2557,"Ġsays":2558,"extremely":2559,"Ġsausage":2560,"Ġtrad":2561,"Ġcorrect":2562,"Ġveggies":2563,"Ġpractice":2564,"Ġgirls":2565,"Ġdiscount":2566,"laint":2567,"acular":2568,"roc":2569,"ectacular":2570,"Ġcenter":2571,"Ġmassage":2572,"tail":2573,"ults":2574,"Ġspace":2575,"Ġcomplaint":2576,"Ġacc":2577,"Ġhappened":2578,"Ġfollow":2579,"list":2580,"pizza":2581,"Ġfolks":2582,"ented":2583,"Ġcoll":2584,"Ġcozy":2585,"Ġexpected":2586,"ru":2587,"inc":2588,"Ġint":2589,"etent":2590,"Ġwrite":2591,"Ġseasoned":2592,"Ġbuild":2593,"Ġsched":2594,"Ġspring":2595,"Ġlobster":2596,"Ġsouth":2597,"una":2598,"Ġstrong":2599,"Ġappreciate":2600,"Ġyoun":2601,"Ġprocess":2602,"Ġrock":2603,"Ġcurry":2604,"have":2605,"Ġworked":2606,"Ġclassic":2607,"Ġsou":2608,"Ġmeet":2609,"bel":2610,"fection":2611,"Ġgard":2612,"check":2613,"Ġdownhill":2614,"Ġpleasantly":2615,"Ġidea":2616,"comfortable":2617,"Ġmach":2618,"Ġmouth":2619,"ries":2620,"Ġruin":2621,"Ġoutdoor":2622,"Ġsaw":2623,"Ġpurchas":2624,"Ġquestions":2625,"Ġmight":2626,"imes":2627,"Ġexactly":2628,"apan":2629,"Ġrepair":2630,"Ġsides":2631,"Ġremo":2632,"Ġchanged":2633,"fin":2634,"key":2635,"Ġspectacular":2636,"Ġentrees":2637,"Ġpieces":2638,"Ġtv":2639,"enuine":2640,"ometimes":2641,"Ġcafe":2642,"Ġburritos":2643,"Ġwindow":2644,"ren":2645,"Ġrib":2646,"Ġbathroom":2647,"Ġhungry":2648,"Ġamerican":2649,"tic":2650,"inks":2651,"Ġbought":2652,"entle":2653,"Ġjapan":2654,"Ġmarket":2655,"pm":2656,"umbs":2657,"imate":2658,"Ġexpectations":2659,"Ġgenuine":2660,"Ġsho":2661,"Ġstores":2662,"Ġsingle":2663,"na":2664,"Ġpet":2665,"Ġface":2666,"ky":2667,"Ġdip":2668,"Ġweird":2669,"Ġrocks":2670,"Ġacross":2671,"Ġmargaritas":2672,"totally":2673,"bar":2674,"gross":2675,"Ġsummer":2676,"Ġluck":2677,"Ġcomplain":2678,"two":2679,"Ġgentle":2680,"acceptable":2681,"Ġfavorites":2682,"Ġchecked":2683,"Ġkidding":2684,"Ġcosts":2685,"gu":2686,"her":2687,"once":2688,"Ġsoooo":2689,"row":2690,"Ġlay":2691,"Ġbegin":2692,"ba":2693,"Ġtemp":2694,"Ġjuicy":2695,"Ġforever":2696,"huge":2697,"Ġwall":2698,"been":2699,"Ġappetizers":2700,"Ġnorm":2701,"Ġvegetarian":2702,"asily":2703,"Ġrec":2704,"Ġstale":2705,"liable":2706,"avy":2707,"Ġfairly":2708,"bage":2709,"ana":2710,"Ġknew":2711,"Ġsupport":2712,"rong":2713,"oman":2714,"Ġasada":2715,"Ġemployee":2716,"Ġsy":2717,"Ġasian":2718,"Ġsell":2719,"Ġdeals":2720,"Ġrefund":2721,"Ġpurchase":2722,"Ġhostess":2723,"ware":2724,"Ġpost":2725,"Ġbrown":2726,"Ġwrap":2727,"edible":2728,"Ġpaying":2729,"back":2730,"Ġsound":2731,"Ġsports":2732,"ocked":2733,"Ġstylist":2734,"Ġexcited":2735,"amp":2736,"cri":2737,"Ġsucked":2738,"Ġapartment":2739,"Ġbagel":2740,"finally":2741,"Ġtre":2742,"land":2743,"Ġsafe":2744,"osed":2745,"ained":2746,"Ġadded":2747,"ilet":2748,"Ġnone":2749,"orgeous":2750,"Ġfoot":2751,"Ġbrew":2752,"Ġguest":2753,"Ġblack":2754,"Ġcorn":2755,"Ġproblems":2756,"Ġfrequ":2757,"Ġbakery":2758,"bin":2759,"Ġfoods":2760,"Ġomelet":2761,"Ġyoung":2762,"Ġjapanese":2763,"aven":2764,"Ġmatter":2765,"Ġflavorless":2766,"Ġchecking":2767,"Ġnumber":2768,"Ġet":2769,"Ġshame":2770,"Ġspin":2771,"Ġcleaning":2772,"Ġchildren":2773,"Ġtoppings":2774,"bt":2775,"gi":2776,"Ġappro":2777,"Ġlevel":2778,"mart":2779,"iev":2780,"work":2781,"believ":2782,"Ġnicely":2783,"Ġven":2784,"Ġusual":2785,"Ġrip":2786,"Ġgarden":2787,"car":2788,"house":2789,"ink":2790,"Ġshowed":2791,"Ġdesserts":2792,"Ġheart":2793,"Ġrespect":2794,"tuce":2795,"Ġwoman":2796,"Ġtimely":2797,"Ġcompli":2798,"Ġdealers":2799,"burger":2800,"try":2801,"Ġbri":2802,"oni":2803,"Ġdriver":2804,"Ġclosed":2805,"Ġclearly":2806,"Ġwow":2807,"Ġpub":2808,"stay":2809,"decent":2810,"Ġjoke":2811,"Ġspots":2812,"ling":2813,"utral":2814,"Neutral":2815,"Ġinformative":2816,"Ġranch":2817,"Ġfrequent":2818,"Ġtur":2819,"ingly":2820,"acy":2821,"Ġchew":2822,"Ġmanic":2823,"Ġmove":2824,"Ġdecided":2825,"ident":2826,"Ġgrab":2827,"Ġreturned":2828,"Ġentertain":2829,"Ġsteaks":2830,"Ġinstall":2831,"Ġvegetables":2832,"Ġspeak":2833,"kes":2834,"Ġcent":2835,"orable":2836,"Ġham":2837,"Ġcock":2838,"Ġapple":2839,"Ġtype":2840,"Ġvenue":2841,"30":2842,"hic":2843,"ier":2844,"ried":2845,"Ġword":2846,"Ġdepartment":2847,"erg":2848,"thetic":2849,"Ġtough":2850,"ised":2851,"Ġreplace":2852,"Ġfixed":2853,"Ġbuilding":2854,"nic":2855,"Ġwaff":2856,"Ġsense":2857,"ins":2858,"ency":2859,"illas":2860,"Ġcover":2861,"Ġrefill":2862,"Ġsmelled":2863,"Ġindian":2864,"Ġperfection":2865,"Ġlettuce":2866,"Ġye":2867,"Ġsoft":2868,"Ġunless":2869,"Ġvehic":2870,"ta":2871,"Ġpizz":2872,"Ġmoder":2873,"ginal":2874,"erve":2875,"Ġobviously":2876,"ork":2877,"Ġcarne":2878,"Ġsalt":2879,"Ġetc":2880,"aint":2881,"redit":2882,"reek":2883,"rist":2884,"yal":2885,"Ġfive":2886,"Ġpad":2887,"aki":2888,"Ġusing":2889,"hop":2890,"noon":2891,"Ġsqu":2892,"Ġcredit":2893,"Ġalong":2894,"Ġflowers":2895,"Ġcashier":2896,"Ġhy":2897,"nowled":2898,"Ġuncomfortable":2899,"Ġcars":2900,"Ġbeat":2901,"ants":2902,"Ġshot":2903,"ositive":2904,"Ġupd":2905,"consistent":2906,"Ġdamn":2907,"Ġmov":2908,"Ġcash":2909,"Ġrunning":2910,"Ġexcuse":2911,"Ġveggie":2912,"took":2913,"Ġtuna":2914,"Ġmine":2915,"Ġreliable":2916,"Ġbucks":2917,"Ġcontact":2918,"ball":2919,"bert":2920,"Ġfit":2921,"Ġfil":2922,"ics":2923,"Ġjew":2924,"Ġcleaned":2925,"Ġgift":2926,"sm":2927,"ream":2928,"Ġtire":2929,"berry":2930,"Ġflat":2931,"gre":2932,"Ġna":2933,"ste":2934,"Ġorange":2935,"Ġafternoon":2936,"Ġcase":2937,"Ġpoorly":2938,"Ġhole":2939,"Ġfurn":2940,"Ġpull":2941,"pping":2942,"Ġpaper":2943,"Ġsetting":2944,"donal":2945,"Ġruined":2946,"Ġsw":2947,"Ġthru":2948,"Ġignored":2949,"pri":2950,"oring":2951,"Ġcrazy":2952,"Ġrefused":2953,"Ġgym":2954,"can":2955,"cdonal":2956,"iny":2957,"Ġgroc":2958,"ters":2959,"Ġheaven":2960,"Ġlocations":2961,"Ġmedium":2962,"Positive":2963,"last":2964,"Ġgel":2965,"Ġtrash":2966,"Ġnights":2967,"Ġprime":2968,"Ġrelaxed":2969,"Ġdealership":2970,"dd":2971,"Ġbon":2972,"Ġny":2973,"Ġguac":2974,"from":2975,"law":2976,"Ġques":2977,"Ġpatr":2978,"Ġviet":2979,"Ġanimals":2980,"uit":2981,"wrong":2982,"Ġgorgeous":2983,"Ġflight":2984,"tz":2985,"Ġtour":2986,"Ġmen":2987,"Ġdark":2988,"Ġcombo":2989,"Ġgotten":2990,"Ġbuying":2991,"da":2992,"look":2993,"Ġwalking":2994,"Ġhold":2995,"Ġappreciated":2996,"Ġur":2997,"Ġleg":2998,"Ġambience":2999,"chan":3000,"Ġones":3001,"Ġdoctors":3002,"Ġdental":3003,"Ġcocktail":3004,"Ġpizzas":3005,"Ġtheater":3006,"ature":3007,"Ġneat":3008,"otherwise":3009,"Ġhoney":3010,"Ġdough":3011,"iture":3012,"Ġpleasure":3013,"anyway":3014,"raight":3015,"ule":3016,"Ġcat":3017,"Ġmcdonal":3018,"ote":3019,"pers":3020,"Ġgrand":3021,"Ġfancy":3022,"ret":3023,"Ġben":3024,"Ġban":3025,"chicken":3026,"outstanding":3027,"Ġtrave":3028,"Ġsupposed":3029,"Ġreservation":3030,"Ġinviting":3031,"cool":3032,"of":3033,"lay":3034,"namese":3035,"sadly":3036,"iv":3037,"Ġer":3038,"Ġoh":3039,"Ġrings":3040,"Ġenc":3041,"Ġselections":3042,"Ġroast":3043,"bec":3044,"Ġhi":3045,"Ġoper":3046,"Ġstation":3047,"Ġassist":3048,"Ġvisited":3049,"Ġplates":3050,"Ġincluding":3051,"esterday":3052,"Ġtow":3053,"Ġchairs":3054,"Ġshut":3055,"Ġdeserve":3056,"Ġpresent":3057,"Ġpict":3058,"cle":3059,"fam":3060,"pect":3061,"fully":3062,"Ġfat":3063,"Ġtap":3064,"Ġalone":3065,"Ġalter":3066,"ages":3067,"Ġimpressive":3068,"Ġserving":3069,"Ġtalking":3070,"Ġvietnamese":3071,"Ġbab":3072,"Ġrare":3073,"Ġlim":3074,"Ġimpro":3075,"Ġdeserv":3076,"Ġjewel":3077,"Ġfurniture":3078,"Ġbike":3079,"Ġmis":3080,"Ġfam":3081,"Ġsomewhere":3082,"Ġgroom":3083,"Ġsection":3084,"Ġfilled":3085,"Ġauto":3086,"jor":3087,"Ġwont":3088,"Ġwide":3089,"Ġrub":3090,"Ġoriginal":3091,"Ġed":3092,"Ġbun":3093,"Ġdie":3094,"ridiculous":3095,"Ġmechan":3096,"quick":3097,"Ġunacceptable":3098,"again":3099,"aily":3100,"Ġgives":3101,"Ġproduce":3102,"Ġgeneral":3103,"live":3104,"Ġbisc":3105,"Ġgreek":3106,"Ġpicked":3107,"Ġsmells":3108,"Ġspinach":3109,"Ġfry":3110,"ago":3111,"Ġmic":3112,"Ġdont":3113,"Ġthick":3114,"Ġstaying":3115,"Ġcookies":3116,"Ġlisten":3117,"uits":3118,"Ġeast":3119,"Ġfaj":3120,"Ġsmil":3121,"bread":3122,"wal":3123,"alo":3124,"Ġstraight":3125,"Ġseat":3126,"Ġwilling":3127,"Ġmanner":3128,"Ġparm":3129,"Ġfinished":3130,"ories":3131,"Ġdine":3132,"antic":3133,"Ġvac":3134,"Ġcondition":3135,"Ġenchiladas":3136,"uation":3137,"Ġack":3138,"ision":3139,"Ġstate":3140,"Ġwithin":3141,"Ġang":3142,"Ġconvers":3143,"Ġnightm":3144,"Ġentree":3145,"waited":3146,"Ġpurchased":3147,"Ġacknowled":3148,"cr":3149,"Ġsun":3150,"Ġfall":3151,"Ġvegan":3152,"Ġattend":3153,"Ġground":3154,"Ġrefer":3155,"Ġinterior":3156,"Ġnoticed":3157,"family":3158,"bb":3159,"fer":3160,"Ġrel":3161,"Ġsoups":3162,"Ġcrew":3163,"Ġconcer":3164,"Ġtraditional":3165,"Ġdaily":3166,"acious":3167,"Ġcombin":3168,"Ġdeep":3169,"Ġviews":3170,"Ġmembers":3171,"Ġglasses":3172,"fish":3173,"gest":3174,"iy":3175,"Ġpo":3176,"Ġbecome":3177,"Ġforget":3178,"Ġyes":3179,"Ġchic":3180,"Ġsubs":3181,"Ġresults":3182,"simply":3183,"iyaki":3184,"sat":3185,"Ġsn":3186,"Ġchill":3187,"Ġasking":3188,"head":3189,"Ġblue":3190,"comple":3191,"Ġtypical":3192,"Ġlimited":3193,"Ġwest":3194,"Ġforgot":3195,"Ġshare":3196,"amole":3197,"whel":3198,"Ġbathrooms":3199,"lamari":3200,"ha":3201,"Ġdue":3202,"Ġele":3203,"atever":3204,"Ġfeels":3205,"Ġcharged":3206,"Ġsauces":3207,"Ġresort":3208,"Ġlaid":3209,"Ġrushed":3210,"small":3211,"Ġbatter":3212,"Ġvisits":3213,"Ġbroth":3214,"Ġmissing":3215,"Ġcuis":3216,"Ġpiss":3217,"Ġgod":3218,"Ġride":3219,"Ġdead":3220,"Ġzoo":3221,"honestly":3222,"Ġchewy":3223,"Ġmanicure":3224,"ced":3225,"Ġchurch":3226,"Ġloyal":3227,"ecc":3228,"Ġrom":3229,"Ġbasic":3230,"Ġgames":3231,"unk":3232,"Ġgold":3233,"Ġscr":3234,"ina":3235,"ashi":3236,"Ġbelow":3237,"usch":3238,"Ġmaint":3239,"Ġdoubt":3240,"Ġturkey":3241,"uschet":3242,"amy":3243,"sec":3244,"Ġshit":3245,"Ġseats":3246,"Ġcountry":3247,"Ġcompliment":3248,"Ġmodern":3249,"complete":3250,"Ġten":3251,"orean":3252,"Ġiced":3253,"erry":3254,"Ġnearly":3255,"Ġsamp":3256,"Ġtires":3257,"Ġdesign":3258,"thes":3259,"Ġcakes":3260,"organ":3261,"Ġdef":3262,"Ġlem":3263,"Ġstory":3264,"Ġyesterday":3265,"Ġpharm":3266,"Ġmostly":3267,"Ġclear":3268,"competent":3269,"Ġhope":3270,"Ġcuisine":3271,"tle":3272,"Ġir":3273,"Ġnach":3274,"Ġconst":3275,"selves":3276,"Ġrefresh":3277,"Ġreception":3278,"Ġhonestly":3279,"Ġhur":3280,"Ġteriyaki":3281,"Ġmeats":3282,"sues":3283,"Ġgirlfriend":3284,"Ġhorri":3285,"ather":3286,"Ġsle":3287,"Ġtext":3288,"irt":3289,"Ġcrappy":3290,"Ġregister":3291,"Ġshows":3292,"Ġstraw":3293,"Ġmargarita":3294,"Ġremodel":3295,"believable":3296,"Ġnightmare":3297,"onse":3298,"Ġissues":3299,"solid":3300,"Ġpatients":3301,"Ġcoupon":3302,"Ġcommunic":3303,"med":3304,"wai":3305,"Ġhum":3306,"Ġhol":3307,"Ġwasted":3308,"Ġhawai":3309,"Ġbean":3310,"ops":3311,"Ġburnt":3312,"Ġbites":3313,"Ġcooking":3314,"Ġgarbage":3315,"Ġsituation":3316,"Ġprovide":3317,"eccable":3318,"hands":3319,"ini":3320,"Ġmedic":3321,"Ġsmoke":3322,"uesday":3323,"Ġmovie":3324,"uschetta":3325,"reason":3326,"Ġmel":3327,"ars":3328,"ionate":3329,"Ġsave":3330,"iforn":3331,"Ġbud":3332,"ountain":3333,"ummus":3334,"Ġquestion":3335,"break":3336,"Ġcommunity":3337,"ifornia":3338,"fa":3339,"ors":3340,"ows":3341,"Ġquaint":3342,"Ġexcept":3343,"Ġresponse":3344,"disgusting":3345,"Ġenchilada":3346,"Ġdelightful":3347,"Ġclothes":3348,"Ġguacamole":3349,"breakfast":3350,"Ġboring":3351,"Ġpan":3352,"Ġchrist":3353,"Ġcap":3354,"Ġincon":3355,"Ġdescri":3356,"Ġimportant":3357,"Ġcomplaints":3358,"Ġvehicle":3359,"Ġnurs":3360,"Ġthumbs":3361,"Ġgoodness":3362,"Ġkorean":3363,"thern":3364,"Ġheard":3365,"Ġtrans":3366,"Ġgrocery":3367,"authentic":3368,"emp":3369,"each":3370,"thy":3371,"Ġspl":3372,"onday":3373,"iple":3374,"Ġpolish":3375,"Ġtortillas":3376,"ken":3377,"none":3378,"top":3379,"Ġ#":3380,"Ġsatisfy":3381,"Ġprovided":3382,"Ġapology":3383,"Ġemail":3384,"Ġmajor":3385,"incredi":3386,"Ġmaintained":3387,"organized":3388,"ract":3389,"Ġhill":3390,"lebr":3391,"Ġrav":3392,"amed":3393,"Ġcarp":3394,"Ġhardly":3395,"Ġlemon":3396,"rass":3397,"yeah":3398,"Ġpita":3399,"Ġgroupon":3400,"Ġchicago":3401,"next":3402,"off":3403,"recommend":3404,"lly":3405,"Ġwifi":3406,"ween":3407,"ressed":3408,"Ġsaying":3409,"Ġwatching":3410,"could":3411,"ners":3412,"uc":3413,"Ġmidd":3414,"Ġstocked":3415,"elf":3416,"ists":3417,"temp":3418,"Ġbrand":3419,"Ġimpeccable":3420,"Ġkinda":3421,"Ġcalifornia":3422,"Ġconversation":3423,"pa":3424,"slow":3425,"action":3426,"Ġgol":3427,"Ġcalamari":3428,"Ġgravy":3429,"ccoli":3430,"Ġrental":3431,"Ġannoying":3432,"Ġoccasion":3433,"Ġrefreshing":3434,"izes":3435,"fu":3436,"Ġsometimes":3437,"Ġtiny":3438,"Ġsam":3439,"Ġcompass":3440,"Ġcrunch":3441,"waitress":3442,"Ġannoyed":3443,"consistently":3444,"Ġfire":3445,"Ġgas":3446,"Ġlear":3447,"icult":3448,"Ġincompetent":3449,"Ġhelping":3450,"Ġaccess":3451,"Ġmoving":3452,"Ġwaitresses":3453,"Ġintern":3454,"Ġlaugh":3455,"Ġnoodle":3456,"Ġexplained":3457,"Ġupset":3458,"soo":3459,"Ġtuesday":3460,"Ġonions":3461,"Ġsoda":3462,"Ġrot":3463,"Ġdelish":3464,"Ġprev":3465,"ashed":3466,"pleasant":3467,"Ġproperty":3468,"Ġpharmacy":3469,"cl":3470,"Ġsend":3471,"Ġpm":3472,"otle":3473,"eld":3474,"Ġstep":3475,"Ġcelebr":3476,"truly":3477,"wish":3478,"urance":3479,"Ġfruit":3480,"Ġshops":3481,"Ġstuffed":3482,"ultiple":3483,"Ġskill":3484,"Ġadvice":3485,"Ġfajitas":3486,"Ġfilet":3487,"Ġble":3488,"ific":3489,"Ġimag":3490,"nician":3491,"Ġromantic":3492,"second":3493,"call":3494,"hn":3495,"Ġbooth":3496,"edy":3497,"Ġeasily":3498,"Ġjoe":3499,"Ġjohn":3500,"Ġbetween":3501,"Ġbuffalo":3502,"Ġgolf":3503,"ivers":3504,"Ġsizes":3505,"Ġrich":3506,"Ġbroccoli":3507,"wards":3508,"Ġinsurance":3509,"Ġconsidering":3510,"yum":3511,"Ġ5":3512,"Ġround":3513,"Ġagree":3514,"Ġoffers":3515,"Ġdifficult":3516,"Ġbaby":3517,"Ġnachos":3518,"Ġwomen":3519,"Ġpush":3520,"Ġhist":3521,"Ġeverywhere":3522,"Ġbars":3523,"Ġbruschetta":3524,"ipment":3525,"Ġreceive":3526,"barrass":3527,"Ġguests":3528,"Ġravi":3529,"din":3530,"Ġpenny":3531,"Ġdisaster":3532,"Ġcarry":3533,"Ġroad":3534,"Ġsmo":3535,"Ġschedul":3536,"ax":3537,"ace":3538,"easy":3539,"rant":3540,"your":3541,"Ġ3":3542,"Ġbright":3543,"Ġhummus":3544,"urity":3545,"ghet":3546,"Ġcares":3547,"Ġbiggest":3548,"Ġbroken":3549,"Ġmiddle":3550,"hot":3551,"Ġyeah":3552,"ppy":3553,"Ġstud":3554,"Ġrefills":3555,"Ġcreamy":3556,"Ġprior":3557,"Ġstanding":3558,"Ġtechnician":3559,"Ġpulled":3560,"sal":3561,"inst":3562,"inary":3563,"ica":3564,"Ġallow":3565,"apparently":3566,"Ġheat":3567,"ager":3568,"Ġcompet":3569,"Ġenter":3570,"Ġcasino":3571,"people":3572,"Ġtomatoes":3573,"Ġfrustrating":3574,"save":3575,"Ġsum":3576,"Ġsale":3577,"Ġfail":3578,"Ġfault":3579,"Ġrecommendation":3580,"Ġapart":3581,"tenance":3582,"Ġembarrass":3583,"disappointed":3584,"ied":3585,"Ġmonday":3586,"Ġtofu":3587,"stem":3588,"Ġche":3589,"ustard":3590,"Ġpersonality":3591,"shame":3592,"Ġnorth":3593,"Ġanimal":3594,"Ġsystem":3595,"Ġolive":3596,"Ġmother":3597,"Ġchose":3598,"illy":3599,"Ġlocated":3600,"burgers":3601,"Ġchipotle":3602,"Ġleaving":3603,"Ġdrop":3604,"Ġproperly":3605,"Ġencounter":3606,"liness":3607,"Ġhar":3608,"Ġyork":3609,"Ġdist":3610,"Ġseeing":3611,"Ġscrew":3612,"Ġcorpor":3613,"Ġaddition":3614,"drinks":3615,"Ġdrove":3616,"total":3617,"Ġbottom":3618,"Ġpresentation":3619,"Ġcustard":3620,"Ġblood":3621,"Ġmixed":3622,"Ġdeserves":3623,"ashimi":3624,"Ġhawaiian":3625,"ghetti":3626,"di":3627,"min":3628,"Ġburn":3629,"Ġclin":3630,"Ġboard":3631,"Ġbeaut":3632,"Ġequipment":3633,"though":3634,"Ġmed":3635,"Ġmag":3636,"Ġmultiple":3637,"ecake":3638,"does":3639,"tonight":3640,"Ġcreative":3641,"Ġpissed":3642,"ala":3643,"Ġfig":3644,"cale":3645,"Ġcraving":3646,"Ġmachine":3647,"Ġsnack":3648,"imi":3649,"Ġmuse":3650,"Ġkick":3651,"Ġopened":3652,"Ġlacked":3653,"Ġbased":3654,"Ġmuseum":3655,"help":3656,"Ġsaved":3657,"quality":3658,"Ġhash":3659,"Ġcuts":3660,"Ġgroups":3661,"Ġthoroughly":3662,"Ġintimate":3663,"Ġjewelry":3664,"ible":3665,"tried":3666,"Ġmot":3667,"Ġthrew":3668,"omach":3669,"Ġlived":3670,"andy":3671,"Ġfell":3672,"Ġunfortunately":3673,"Ġphot":3674,"Ġsouthern":3675,"Ġpets":3676,"Ġlines":3677,"Ġunhappy":3678,"Ġtalked":3679,"Ġskills":3680,"Ġedible":3681,"omg":3682,"Ġstomach":3683,"Ġspacious":3684,"Ġslight":3685,"Ġseasoning":3686,"Ġgyros":3687,"Ġbonus":3688,"Ġsleep":3689,"employ":3690,"des":3691,"Ġahead":3692,"Ġring":3693,"agna":3694,"Ġapparently":3695,"Ġtakeout":3696,"Ġwalmart":3697,"ashion":3698,"Ġbeds":3699,"Ġparticularly":3700,"found":3701,"Ġult":3702,"Ġchow":3703,"Ġrange":3704,"Ġoverly":3705,"fried":3706,"Ġthinking":3707,"Ġsurprisingly":3708,"Ġgenuinely":3709,"Ġbiscuits":3710,"tasty":3711,"Ġnon":3712,"Ġliving":3713,"seem":3714,"Ġcheesecake":3715,"Ġcharg":3716,"Ġlocals":3717,"Ġmushy":3718,"light":3719,"nes":3720,"atmosphere":3721,"orm":3722,"Ġtired":3723,"Ġteach":3724,"Ġgreens":3725,"Ġtreats":3726,"Ġmushrooms":3727,"Ġtexture":3728,"Ġcorporate":3729,"jun":3730,"Ġsashimi":3731,"Ġdim":3732,"aste":3733,"enderson":3734,"Ġarr":3735,"Ġexpress":3736,"Ġolder":3737,"Ġapologized":3738,"Ġenglish":3739,"Ġlayout":3740,"Ġinternet":3741,"Ġravioli":3742,"long":3743,"Ġtons":3744,"Ġpedi":3745,"Ġcig":3746,"Ġalright":3747,"Ġunfriendly":3748,"Ġbarber":3749,"beat":3750,"Ġsooo":3751,"Ġinstru":3752,"Ġconfused":3753,"Ġtortilla":3754,"Ġwarrant":3755,"Ġtempe":3756,"Ġclinic":3757,"bed":3758,"Ġhenderson":3759,"soci":3760,"ousy":3761,"Ġfare":3762,"Ġkill":3763,"Ġcalling":3764,"Ġmoist":3765,"Ġcourt":3766,"Ġthroughout":3767,"Ġgenerally":3768,"Ġlobby":3769,"gs":3770,"mas":3771,"sure":3772,"Ġbunch":3773,"eno":3774,"Ġdan":3775,"anda":3776,"Ġcalls":3777,"ape":3778,"Ġstuck":3779,"Ġpastries":3780,"Ġhigher":3781,"Ġbasically":3782,"Ġjuice":3783,"Ġquesad":3784,"ob":3785,"Ġparent":3786,"eded":3787,"Ġlazy":3788,"uten":3789,"icha":3790,"Ġspaghetti":3791,"Ġslices":3792,"Ġanswered":3793,"ursday":3794,"employees":3795,"sur":3796,"Ġpress":3797,"llo":3798,"completely":3799,"real":3800,"Ġpump":3801,"Ġmashed":3802,"stopped":3803,"etch":3804,"iday":3805,"Ġwhatever":3806,"Ġfreshly":3807,"Ġsecurity":3808,"Ġexpecting":3809,"gusted":3810,"Ġcolle":3811,"kind":3812,"Ġsized":3813,"Ġtick":3814,"Ġcow":3815,"ossi":3816,"who":3817,"Ġprefer":3818,"Ġrepeat":3819,"Ġmacar":3820,"Ġbottle":3821,"Ġfilthy":3822,"Ġcombination":3823,"Ġcommunication":3824,"ause":3825,"arch":3826,"urse":3827,"Ġtreatment":3828,"Ġremind":3829,"because":3830,"Ġholiday":3831,"Ġsatisfying":3832,"mar":3833,"Ġhut":3834,"stick":3835,"stairs":3836,"Ġchat":3837,"soever":3838,"Ġwhatsoever":3839,"Ġclient":3840,"Ġdifference":3841,"Ġclassy":3842,"Ġlasagna":3843,"enjoyed":3844,"Ġtax":3845,"Ġtraining":3846,"Ġschedule":3847,"Ġshoes":3848,"Ġprevious":3849,"lls":3850,"Ġduck":3851,"umb":3852,"see":3853,"Ġconsist":3854,"Ġboba":3855,"Ġcheaper":3856,"Ġmaintenance":3857,"Ġmoment":3858,"give":3859,"od":3860,"pid":3861,"Ġtest":3862,"oted":3863,"ution":3864,"Ġattemp":3865,"Ġjack":3866,"Ġspoke":3867,"loc":3868,"Ġtruck":3869,"Ġstupid":3870,"Ġreceip":3871,"Ġrespons":3872,"Ġpromptly":3873,"disappointing":3874,"Ġconcern":3875,"ued":3876,"zz":3877,"rest":3878,"Ġfashion":3879,"ism":3880,"Ġthursday":3881,"arn":3882,"ado":3883,"Ġmeans":3884,"quite":3885,"Ġupgr":3886,"Ġexpl":3887,"today":3888,"Ġcards":3889,"Ġinformation":3890,"Ġreplaced":3891,"instead":3892,"balls":3893,"sushi":3894,"Ġfly":3895,"Ġbal":3896,"Ġchile":3897,"Ġwaiters":3898,"Ġsomewhat":3899,"Ġgluten":3900,"Ġoutdated":3901,"Ġincluded":3902,"Ġmiles":3903,"Ġpepperoni":3904,"Ġut":3905,"Ġmid":3906,"Ġlat":3907,"Ġassoci":3908,"Ġdisgusted":3909,"hib":3910,"Ġperform":3911,"Ġbody":3912,"Ġfinding":3913,"Ġpossibly":3914,"walked":3915,"Ġencountered":3916,"warm":3917,"Ġsister":3918,"read":3919,"ric":3920,"Ġinsp":3921,"Ġgreatest":3922,"ura":3923,"aded":3924,"Ġmember":3925,"Ġfee":3926,"ips":3927,"Ġgrease":3928,"Ġdriving":3929,"Ġmemorable":3930,"Ġluke":3931,"person":3932,"Ġver":3933,"Ġwalls":3934,"Ġmart":3935,"Ġdefin":3936,"Ġdesired":3937,"Ġactual":3938,"Ġequally":3939,"Ġshuttle":3940,"Ġchristmas":3941,"ured":3942,"Ġtheat":3943,"Ġtar":3944,"Ġcater":3945,"Ġalthough":3946,"ife":3947,"Ġclasses":3948,"plant":3949,"Ġnearby":3950,"Ġtravel":3951,"Ġawhile":3952,"Ġcant":3953,"Ġhoo":3954,"Ġmuff":3955,"Ġchamp":3956,"respect":3957,"Ġanytime":3958,"Ġnormal":3959,"Ġnormally":3960,"Ġcovered":3961,"Ġyellow":3962,"lunch":3963,"Ġwax":3964,"Ġexhib":3965,"Ġdisp":3966,"Ġcrack":3967,"ergy":3968,"Ġrubber":3969,"favor":3970,"Ġslightly":3971,"eth":3972,"Ġdream":3973,"Ġshady":3974,"ains":3975,"Ġcajun":3976,"ilies":3977,"awful":3978,"Ġappointments":3979,"Ġweekends":3980,"Ġgifts":3981,"Ġoccasions":3982,"incredible":3983,"bes":3984,"kin":3985,"rs":3986,"eng":3987,"vert":3988,"Ġstood":3989,"chea":3990,"Ġcomfy":3991,"Ġanyway":3992,"Ġwaitstaff":3993,"Ġupon":3994,"Ġparts":3995,"Ġprofessionalism":3996,"Ġpathetic":3997,"Ġruns":3998,"Ġchanges":3999,"Ġterribly":4000,"Ġwaffle":4001,"Ġmechanic":4002,"Ġcrunchy":4003,"favorite":4004,"Ġmatch":4005,"rious":4006,"Ġstated":4007,"andler":4008,"Ġblah":4009,"Ġmanaged":4010,"Ġundercooked":4011,"Ġfreaking":4012,"Ġmissed":4013,"Ġwarranty":4014,"ma":4015,"same":4016,"anch":4017,"lets":4018,"Ġsuck":4019,"Ġcleaners":4020,"Ġthemselves":4021,"Ġbris":4022,"Ġserious":4023,"Ġcharming":4024,"deli":4025,"Ġregret":4026,"Ġregulars":4027,"Ġskin":4028,"Ġbringing":4029,"Ġmentioned":4030,"has":4031,"west":4032,"rent":4033,"Ġbooked":4034,"ator":4035,"lla":4036,"ended":4037,"Ġram":4038,"ope":4039,"nov":4040,"Ġadvert":4041,"Ġdecision":4042,"although":4043,"Ġmilk":4044,"Ġrelative":4045,"Ġcomplimentary":4046,"Ġcompassionate":4047,"nesday":4048,"fair":4049,"gant":4050,"since":4051,"Ġsce":4052,"Ġrang":4053,"Ġwatery":4054,"iod":4055,"Ġplaying":4056,"Ġcraft":4057,"Ġchefs":4058,"Ġbeginning":4059,"Ġwaffles":4060,"Ġimagine":4061,"medi":4062,"Ġ=":4063,"Ġsil":4064,"inter":4065,"ids":4066,"Ġwords":4067,"Ġcamp":4068,"Ġdisrespect":4069,"Ġcompared":4070,"ifully":4071,"Ġcomplex":4072,"bsite":4073,"Ġwelcomed":4074,"Ġreservations":4075,"Ġpatrons":4076,"Ġsplit":4077,"iversary":4078,"helpful":4079,"Ġreceipt":4080,"old":4081,"take":4082,"Ġhooked":4083,"Ġmeh":4084,"Ġwear":4085,"ached":4086,"Ġmeatballs":4087,"Ġsteakhouse":4088,"Ġkeeps":4089,"Ġwatered":4090,"Ġdecorated":4091,"plenty":4092,"rilled":4093,"should":4094,"Ġgrounds":4095,"cheap":4096,"ses":4097,"esar":4098,"Ġlamb":4099,"Ġperiod":4100,"salad":4101,"Ġrepairs":4102,"Ġrealized":4103,"Ġanniversary":4104,"Ġearth":4105,"Ġsoul":4106,"Ġconstantly":4107,"Ġscheduled":4108,"Ġparents":4109,"ichael":4110,"Ġbrisket":4111,"bott":4112,"make":4113,"Ġchandler":4114,"Ġthrow":4115,"edict":4116,"okay":4117,"pho":4118,"Ġpopular":4119,"Ġbenedict":4120,"Ġsmiling":4121,"whelming":4122,"reasonable":4123,"cute":4124,"og":4125,"sc":4126,"Ġband":4127,"Ġform":4128,"Ġwebsite":4129,"Ġneither":4130,"redded":4131,"Ġunpleasant":4132,"overs":4133,"Ġcookie":4134,"Ġyell":4135,"Ġbudget":4136,"Ġcarpet":4137,"sometimes":4138,"asure":4139,"Ġdance":4140,"Ġfailed":4141,"loppy":4142,"ational":4143,"Ġdidnt":4144,"Ġcompan":4145,"Ġregularly":4146,"Ġcoupons":4147,"Ġstrange":4148,"Ġdouble":4149,"Ġimportantly":4150,"Ġmcdonald":4151,"Ġinstructor":4152,"Ġhooters":4153,"Ġ4":4154,"erk":4155,"Ġtam":4156,"Ġtail":4157,"verse":4158,"Ġstopping":4159,"Ġshape":4160,"Ġrecommendations":4161,"Ġkim":4162,"Ġclients":4163,"Ġprint":4164,"Ġrequested":4165,"Ġlucky":4166,"seems":4167,"een":4168,"mark":4169,"Ġsort":4170,"Ġgoods":4171,"Ġnote":4172,"Ġkey":4173,"udes":4174,"Ġcocktails":4175,"Ġblo":4176,"Ġdenny":4177,"Ġexam":4178,"Ġjala":4179,"Ġvan":4180,"Ġamazingly":4181,"Ġcarr":4182,"Ġ10":4183,"Ġbooks":4184,"Ġrecord":4185,"Ġbanana":4186,"Ġmedical":4187,"called":4188,"zero":4189,"Ġmatt":4190,"ouble":4191,"lle":4192,"Ġthird":4193,"Ġstap":4194,"Ġweak":4195,"Ġraw":4196,"Ġnicest":4197,"Ġhertz":4198,"Ġaccept":4199,"Ġleaves":4200,"Ġserves":4201,"Ġlighting":4202,"Ġupscale":4203,"Ġcorrectly":4204,"guess":4205,"Ġcentral":4206,"Ġpictures":4207,"Ġfamilies":4208,"bottom":4209,"eff":4210,"town":4211,"ze":4212,"atu":4213,"Ġdump":4214,"Ġinedible":4215,"met":4216,"chips":4217,"unbelievable":4218,"Ġcared":4219,"Ġmani":4220,"lovely":4221,"Ġfeed":4222,"Ġeggplant":4223,"Ġcorner":4224,"Ġblast":4225,"Ġpassed":4226,"front":4227,"Ġreading":4228,"Ġmenus":4229,"Ġvacation":4230,"kward":4231,"much":4232,"ram":4233,"Ġodd":4234,"Ġlousy":4235,"Ġplaced":4236,"ilbert":4237,"Ġcompetent":4238,"Ġeats":4239,"Ġadm":4240,"Ġimpression":4241,"Ġregard":4242,"Ġtalented":4243,"simple":4244,"Ġhype":4245,"Ġmicrow":4246,"nut":4247,"urate":4248,"eter":4249,"Ġquoted":4250,"Ġpean":4251,"Ġphx":4252,"Ġpride":4253,"Ġpickles":4254,"Ġarrive":4255,"Ġridiculously":4256,"Ġmushroom":4257,"Ġstandards":4258,"Ġnurses":4259,"af":4260,"boy":4261,"either":4262,"ka":4263,"sk":4264,"aling":4265,"entiful":4266,"Ġexist":4267,"endy":4268,"char":4269,"aks":4270,"Ġappear":4271,"Ġplentiful":4272,"Ġacceptable":4273,"manager":4274,"Ġapologize":4275,"parking":4276,"Ġearned":4277,"Ġaccurate":4278,"Ġentertaining":4279,"Ġangry":4280,"soooo":4281,"corn":4282,"iff":4283,"ially":4284,"erable":4285,"atur":4286,"achi":4287,"coming":4288,"Ġnobody":4289,"ama":4290,"Ġripped":4291,"Ġhandled":4292,"ubby":4293,"Ġeffort":4294,"Ġpolicy":4295,"Ġwednesday":4296,"Ġdiscover":4297,"Ġfrustrated":4298,"Ġhistory":4299,"Ġrelatively":4300,"Ġsloppy":4301,"Ġchim":4302,"Ġcause":4303,"Ġpretz":4304,"Ġvegetable":4305,"Ġinformed":4306,"Ġfacilities":4307,"Ġdropped":4308,"Ġevents":4309,"Ġwraps":4310,"Ġpatron":4311,"delivery":4312,"bas":4313,"easily":4314,"free":4315,"Ġsite":4316,"Ġfing":4317,"Ġger":4318,"Ġlab":4319,"urther":4320,"Ġdried":4321,"avid":4322,"Ġpicky":4323,"getic":4324,"worthy":4325,"Ġbeautifully":4326,"Ġquesadilla":4327,"Ġpressure":4328,"Ġbalance":4329,"Ġslaw":4330,"Ġfool":4331,"arant":4332,"using":4333,"Ġcomment":4334,"Ġcaesar":4335,"Ġbarist":4336,"Ġmark":4337,"lier":4338,"Ġgiant":4339,"Ġsubway":4340,"Ġdescribe":4341,"eed":4342,"egg":4343,"high":4344,"ime":4345,"literally":4346,"ots":4347,"Ġweather":4348,"Ġshredded":4349,"Ġclue":4350,"Ġspecialty":4351,"Ġplatter":4352,"Ġsmaller":4353,"Ġscall":4354,"Ġcontinued":4355,"Ġorganic":4356,"Ġarrange":4357,"ipped":4358,"many":4359,"obviously":4360,"tal":4361,"nding":4362,"Ġcatch":4363,"Ġhon":4364,"Ġgilbert":4365,"uss":4366,"Ġcleanliness":4367,"Ġhanded":4368,"Ġrespond":4369,"Ġtips":4370,"Ġstock":4371,"Ġinsane":4372,"Ġwarned":4373,"Ġmcdonalds":4374,"Ġoperated":4375,"Ġimprove":4376,"visit":4377,"Ġpow":4378,"Ġhip":4379,"Ġmile":4380,"almost":4381,"irm":4382,"Ġwhe":4383,"Ġoutback":4384,"Ġenergy":4385,"Ġcleaner":4386,"Ġstellar":4387,"Ġwriting":4388,"Ġmarin":4389,"Ġadditional":4390,"udos":4391,"Ġhello":4392,"Ġswitch":4393,"Ġpicture":4394,"Ġembarrassed":4395,"Ġcollege":4396,"skip":4397,"jo":4398,"rom":4399,"Ġses":4400,"Ġbi":4401,"Ġblow":4402,"Ġnap":4403,"Ġnurse":4404,"ley":4405,"laim":4406,"iche":4407,"Ġfeet":4408,"Ġcrave":4409,"Ġdrinking":4410,"worse":4411,"Ġskip":4412,"araoke":4413,"Ġgentleman":4414,"Ġacknowledge":4415,"restaurant":4416,"Ġsesame":4417,"bet":4418,"bland":4419,"lin":4420,"ps":4421,"Ġesp":4422,"Ġbank":4423,"Ġopp":4424,"Ġdated":4425,"asted":4426,"uster":4427,"Ġlikes":4428,"Ġcocon":4429,"...":4430,"Ġphilly":4431,"Ġbuck":4432,"ocado":4433,"Ġdrivers":4434,"Ġpair":4435,"Ġpriv":4436,"Ġdepot":4437,"greens":4438,"Ġcoconut":4439,"aved":4440,"waste":4441,"Ġball":4442,"Ġtex":4443,"Ġgon":4444,"Ġmood":4445,"Ġmike":4446,"isy":4447,"Ġrenov":4448,"Ġmein":4449,"Ġking":4450,"Ġlikely":4451,"Ġproce":4452,"Ġawkward":4453,"owner":4454,"eared":4455,"cessary":4456,"Ġhoag":4457,"Ġinterested":4458,"Ġacknowledged":4459,"minal":4460,"luck":4461,"Ġtan":4462,"esan":4463,"Ġshared":4464,"Ġdinners":4465,"Ġshower":4466,"mmm":4467,"Ġbasil":4468,"Ġsuggestions":4469,"Ġurg":4470,"Ġmiserable":4471,"aign":4472,"Ġwines":4473,"Ġsan":4474,"innam":4475,"Ġmelt":4476,"Ġnic":4477,"Ġlame":4478,"Ġyog":4479,"rod":4480,"Ġwanting":4481,"Ġpersonally":4482,"Ġlights":4483,"Ġreceptionist":4484,"class":4485,"Ġsilver":4486,"innamon":4487,"Ġdad":4488,"Ġdarn":4489,"Ġareas":4490,"Ġfav":4491,"Ġquant":4492,"Ġexpert":4493,"Ġeverytime":4494,"ected":4495,"Ġcance":4496,"beye":4497,"aps":4498,"Ġpromised":4499,"Ġpedicures":4500,"Ġaltern":4501,"Ġparmesan":4502,"Ġstrawberry":4503,"mediocre":4504,"Ġchimich":4505,"Ġgerman":4506,"swe":4507,"Ġtat":4508,"esa":4509,"ingy":4510,"Ġthrilled":4511,"ann":4512,"Ġsearch":4513,"aging":4514,"Ġotherwise":4515,"Ġdealt":4516,"Ġunderstanding":4517,"Ġhandle":4518,"Ġdoors":4519,"coffee":4520,"Ġmeeting":4521,"Ġstudent":4522,"Ġchampaign":4523,"gener":4524,"val":4525,"Ġidi":4526,"Ġgh":4527,"Ġyel":4528,"umer":4529,"usually":4530,"Ġspec":4531,"Ġminim":4532,"Ġtrouble":4533,"fries":4534,"Ġadults":4535,"neither":4536,"Ġmary":4537,"Ġsadly":4538,"Ġclothing":4539,"Ġtreasure":4540,"Ġtowels":4541,"ossible":4542,"Ġtarget":4543,"hard":4544,"Ġfle":4545,"ones":4546,"Ġinn":4547,"iders":4548,"efully":4549,"ressive":4550,"Ġknown":4551,"Ġcanned":4552,"Ġwants":4553,"Ġcharm":4554,"actually":4555,"Ġparties":4556,"Ġspeedy":4557,"Ġomelette":4558,"stayed":4559,"Ġrefilled":4560,"priate":4561,"Ġramen":4562,"Ġcampus":4563,"sweet":4564,"fred":4565,"erous":4566,"Ġsir":4567,"reg":4568,"Ġtem":4569,"Ġcinnamon":4570,"Ġther":4571,"Ġease":4572,"Ġrough":4573,"apple":4574,"arella":4575,"Ġadorable":4576,"Ġhonesty":4577,"server":4578,"Ġtrustworthy":4579,"portions":4580,"ample":4581,"Ġinconsistent":4582,"Ġphoto":4583,"zzarella":4584,"bart":4585,"uum":4586,"zone":4587,"thumbs":4588,"Ġself":4589,"Ġive":4590,"iding":4591,"Ġroo":4592,"Ġleftovers":4593,"Ġhighlight":4594,"Ġbasket":4595,"Ġbothered":4596,"Ġcomplained":4597,"Ġentertainment":4598,"Ġmotel":4599,"rami":4600,"table":4601,"Ġ8":4602,"Ġfuck":4603,"Ġcry":4604,"Ġclam":4605,"Ġoy":4606,"Ġwasting":4607,"itary":4608,"Ġeyes":4609,"Ġchall":4610,"une":4611,"Ġknot":4612,"Ġkaraoke":4613,"Ġprogr":4614,"Ġdra":4615,"Ġbigger":4616,"Ġavocado":4617,"cial":4618,"Ġmessed":4619,"Ġlower":4620,"Ġartist":4621,"Ġpaint":4622,"Ġcashiers":4623,"looks":4624,"Ġexplan":4625,"Ġtheatre":4626,"Ġprogram":4627,"cum":4628,"eries":4629,"cending":4630,"Ġclaim":4631,"Ġnatur":4632,"escending":4633,"umpl":4634,"Ġkat":4635,"Ġteeth":4636,"Ġmozzarella":4637,"Ġwinner":4638,"estern":4639,"Ġapartments":4640,"Ġhamburger":4641,"Ġupdate":4642,"Ġimproved":4643,"Ġvacuum":4644,"Ġremodeled":4645,"Ġdiscovered":4646,"Ġwet":4647,"add":4648,"Ġsold":4649,"Ġkeeping":4650,"Ġspending":4651,"Ġtechs":4652,"Ġintrod":4653,"Ġmachines":4654,"Ġwindows":4655,"Ġupdated":4656,"dinner":4657,"Ġlatte":4658,"Ġchimichang":4659,"Ġknots":4660,"past":4661,"recent":4662,"Ġfountain":4663,"Ġmountain":4664,"este":4665,"Ġbadly":4666,"Ġguarant":4667,"Ġdecide":4668,"Ġtells":4669,"Ġtelling":4670,"Ġcondescending":4671,"Ġtoasted":4672,"Ġscrewed":4673,"Ġstaple":4674,"fab":4675,"glad":4676,"night":4677,"sle":4678,"Ġpip":4679,"Ġdumpl":4680,"perature":4681,"Ġassu":4682,"gery":4683,"Ġfluff":4684,"Ġpackage":4685,"management":4686,"Ġfactory":4687,"ergency":4688,"Ġroasted":4689,"Ġhonor":4690,"rane":4691,"ueless":4692,"Ġwendy":4693,"Ġpu":4694,"Ġpies":4695,"Ġpink":4696,"Ġrates":4697,"Ġnoisy":4698,"Ġribeye":4699,"aged":4700,"ongol":4701,"Ġimpossible":4702,"Ġresult":4703,"Ġsubst":4704,"Ġboys":4705,"Ġapologies":4706,"iterrane":4707,"Ġnumerous":4708,"yummy":4709,"Ġpumpkin":4710,"Ġtemperature":4711,"ongolian":4712,"iterranean":4713,"dirty":4714,"fel":4715,"ho":4716,"haps":4717,"round":4718,"lafel":4719,"Ġinvent":4720,"rol":4721,"Ġthats":4722,"Ġrarely":4723,"Ġeveryday":4724,"about":4725,"Ġenjoying":4726,"Ġplants":4727,"Ġbusinesses":4728,"Ġcheeseburger":4729,"Ġreport":4730,"Ġcontrol":4731,"something":4732,"Ġcurrent":4733,"Ġpeppers":4734,"Ġsticks":4735,"Ġqueso":4736,"Ġsmiles":4737,"Ġmembership":4738,"Ġbooths":4739,"Ġcompetitive":4740,"Ġscallops":4741,"Ġquantity":4742,"Ġtattoo":4743,"recently":4744,"fabulous":4745,"bath":4746,"looked":4747,"Ġwon":4748,"Ġmill":4749,"Ġmichael":4750,"Ġden":4751,"Ġdanc":4752,"Ġlake":4753,"ache":4754,"Ġlos":4755,"Ġlovers":4756,"Ġalfred":4757,"Ġash":4758,"Ġamong":4759,"Ġdeg":4760,"Ġunit":4761,"Ġclueless":4762,"Ġhotels":4763,"Ġsurgery":4764,"Ġpicking":4765,"Ġappetite":4766,"Ġaccommodate":4767,"Ġwashed":4768,"Ġinconven":4769,"Ġpushy":4770,"Ġrubbery":4771,"better":4772,"Ġexplanation":4773,"Ġalfredo":4774,"gy":4775,"rd":4776,"Ġ7":4777,"Ġboot":4778,"Ġhits":4779,"Ġmari":4780,"Ġeaster":4781,"Ġwild":4782,"Ġloaded":4783,"Ġsepar":4784,"Ġsteamed":4785,"Ġsalesman":4786,"Ġemergency":4787,"bvious":4788,"gien":4789,"Ġallowed":4790,"interest":4791,"Ġmer":4792,"Ġdest":4793,"Ġtoilet":4794,"lect":4795,"ays":4796,"Ġexample":4797,"aked":4798,"Ġcaf":4799,"Ġqueen":4800,"Ġmango":4801,"Ġcheeseste":4802,"Ġaddic":4803,"board":4804,"fortunate":4805,"Ġbase":4806,"Ġdepend":4807,"Ġhygien":4808,"Ġmediterranean":4809,"Ġdraft":4810,"ah":4811,"bon":4812,"luster":4813,"nge":4814,"set":4815,"uel":4816,"Ġ/":4817,"Ġ9":4818,"Ġobvious":4819,"resso":4820,"Ġrecommending":4821,"Ġdisorganized":4822,"Ġunimp":4823,"Ġhappens":4824,"Ġappt":4825,"Ġprofessionals":4826,"Ġmeatball":4827,"Ġbroke":4828,"Ġexceptionally":4829,"Ġlounge":4830,"Ġtvs":4831,"Ġposted":4832,"Ġmelted":4833,"Ġburned":4834,"Ġcowork":4835,"Ġmacaroni":4836,"Ġattempt":4837,"Ġlukewarm":4838,"ccess":4839,"wings":4840,"Ġdust":4841,"Ġland":4842,"left":4843,"Ġrat":4844,"Ġuptown":4845,"Ġrestrooms":4846,"Ġlocally":4847,"Ġflav":4848,"Ġsmok":4849,"Ġcheesy":4850,"Ġdiverse":4851,"servers":4852,"oons":4853,"Ġhospitality":4854,"Ġbowls":4855,"Ġpresented":4856,"Ġhangout":4857,"Ġfootball":4858,"talk":4859,"kudos":4860,"rench":4861,"Ġpest":4862,"enities":4863,"Ġinf":4864,"Ġchun":4865,"Ġris":4866,"Ġrated":4867,"Ġfalafel":4868,"Ġpeace":4869,"Ġextensive":4870,"beer":4871,"being":4872,"Ġdealing":4873,"Ġsurround":4874,"Ġplayed":4875,"Ġcloser":4876,"Ġhoping":4877,"giving":4878,"Ġfrequently":4879,"Ġhorribly":4880,"Ġbloody":4881,"coh":4882,"dge":4883,"down":4884,"son":4885,"Ġ+":4886,"Ġtu":4887,"Ġstress":4888,"Ġchris":4889,"Ġshake":4890,"Ġfake":4891,"loin":4892,"Ġrestroom":4893,"Ġbarbers":4894,"notch":4895,"Ġtrail":4896,"Ġcareful":4897,"overpriced":4898,"anyways":4899,"Ġfarm":4900,"Ġmanagers":4901,"Ġlacks":4902,"Ġlackluster":4903,"Ġindust":4904,"Ġremembered":4905,"Ġprescri":4906,"Ġoriented":4907,"Ġaccount":4908,"surpris":4909,"Ġconsistency":4910,"cohol":4911,"dec":4912,"gue":4913,"sand":4914,"vin":4915,"Ġ6":4916,"thus":4917,"Ġfurther":4918,"Ġbul":4919,"Ġmild":4920,"Ġchair":4921,"Ġliqu":4922,"Ġsuccess":4923,"ility":4924,"Ġcobb":4925,"Ġanybody":4926,"Ġfees":4927,"Ġappe":4928,"Ġdirect":4929,"Ġdelivers":4930,"Ġscam":4931,"Ġpoints":4932,"bring":4933,"satis":4934,"Ġticket":4935,"Ġdisrespectful":4936,"sandwich":4937,"fla":4938,"kids":4939,"ror":4940,"tent":4941,"thru":4942,"ask":4943,"larious":4944,"Ġsoy":4945,"Ġsavor":4946,"Ġvol":4947,"Ġcoles":4948,"Ġgrits":4949,"Ġdire":4950,"Ġdiet":4951,"Ġbreads":4952,"Ġfully":4953,"Ġcooks":4954,"Ġprovides":4955,"trust":4956,"Ġcolors":4957,"Ġsliced":4958,"Ġeyebr":4959,"Ġsmoothies":4960,"Ġsafeway":4961,"Ġeduc":4962,"whelmed":4963,"Ġsmoking":4964,"Ġteachers":4965,"Ġdumplings":4966,"tentious":4967,"Ġcoleslaw":4968,"bachi":4969,"nasty":4970,"py":4971,"ugg":4972,"Ġah":4973,"Ġwing":4974,"ened":4975,"ential":4976,"Ġamenities":4977,"Ġfrank":4978,"abi":4979,"Ġdrunk":4980,"Ġselect":4981,"Ġjobs":4982,"Ġscre":4983,"uben":4984,"Ġflor":4985,"Ġairline":4986,"alet":4987,"Ġbags":4988,"going":4989,"udge":4990,"Ġdonut":4991,"Ġconfusing":4992,"Ġspices":4993,"Ġshoe":4994,"Ġcornbread":4995,"Ġhibachi":4996,"Ġwonton":4997,"Ġirrit":4998,"sticks":4999,"Ġprivate":5000,"theless":5001,"Ġhire":5002,"Ġmesa":5003,"oriz":5004,"Ġeth":5005,"Ġinte":5006,"Ġalcohol":5007,"kee":5008,"chees":5009,"Ġjim":5010,"Ġworn":5011,"Ġages":5012,"Ġhassle":5013,"mike":5014,"ctions":5015,"bee":5016,"aired":5017,"Ġdishonest":5018,"Ġunderst":5019,"Ġsecret":5020,"Ġsliders":5021,"isoning":5022,"Ġsuggested":5023,"Ġtypically":5024,"Ġstrongly":5025,"Ġalterations":5026,"Ġpoisoning":5027,"Ġassociates":5028,"Ġperformance":5029,"Ġinstructors":5030,"Ġyelpers":5031,"orizo":5032,"gly":5033,"Ġfans":5034,"ination":5035,"Ġpuff":5036,"Ġhated":5037,"Ġmongolian":5038,"Ġlit":5039,"stal":5040,"Ġhall":5041,"Ġstri":5042,"Ġlose":5043,"Ġdozen":5044,"Ġconn":5045,"Ġunhelpful":5046,"Ġveter":5047,"Ġbranch":5048,"Ġsuperior":5049,"Ġterminal":5050,"Ġrefuse":5051,"Ġputting":5052,"Ġmessage":5053,"Ġchanging":5054,"Ġsticky":5055,"Ġnaan":5056,"Ġcatfish":5057,"Ġcharges":5058,"luckily":5059,"satisfied":5060,"dri":5061,"ms":5062,"makes":5063,"nope":5064,"vine":5065,"Ġill":5066,"Ġballs":5067,"Ġmir":5068,"enn":5069,"sters":5070,"ales":5071,"Ġgreatly":5072,"etto":5073,"irts":5074,"Ġloving":5075,"unless":5076,"Ġshirt":5077,"terri":5078,"Ġsugar":5079,"Ġquote":5080,"Ġproced":5081,"apped":5082,"Ġbarg":5083,"itten":5084,"Ġsets":5085,"Ġclosest":5086,"Ġplanet":5087,"steak":5088,"Ġgolden":5089,"Ġfigure":5090,"Ġpower":5091,"Ġghetto":5092,"flavor":5093,"dont":5094,"men":5095,"Ġpure":5096,"Ġpud":5097,"Ġcub":5098,"Ġstinks":5099,"Ġalot":5100,"ateful":5101,"Ġupbeat":5102,"Ġhelps":5103,"Ġunorganized":5104,"Ġreasons":5105,"aches":5106,"Ġfinal":5107,"shrimp":5108,"Ġsatisf":5109,"someone":5110,"Ġsmoothie":5111,"Ġautom":5112,"Ġsounds":5113,"Ġskilled":5114,"Ġmuffins":5115,"Ġmarinara":5116,"Ġnatural":5117,"Ġpudding":5118,"00":5119,"ele":5120,"fc":5121,"Ġale":5122,"anie":5123,"Ġreuben":5124,"Ġshar":5125,"Ġvoice":5126,"ilt":5127,"Ġcox":5128,"aming":5129,"Ġheavy":5130,"ressing":5131,"Ġunbelievable":5132,"ards":5133,"Ġcomput":5134,"Ġgrateful":5135,"Ġdipping":5136,"Ġscream":5137,"cold":5138,"Ġflower":5139,"Ġmechanics":5140,"Ġbattery":5141,"Ġscratch":5142,"Ġintroduce":5143,"Ġfluffy":5144,"bl":5145,"ives":5146,"rated":5147,"era":5148,"Ġgate":5149,"isa":5150,"etiz":5151,"Ġshocked":5152,"Ġlie":5153,"Ġvide":5154,"appetiz":5155,"Ġmini":5156,"Ġvets":5157,"imately":5158,"Ġwalgreens":5159,"Ġdesp":5160,"large":5161,"ney":5162,"Ġofferings":5163,"Ġcostco":5164,"Ġanswers":5165,"Ġdetails":5166,"Ġtempura":5167,"believably":5168,"Ġfitness":5169,"Ġlegit":5170,"Ġhilarious":5171,"having":5172,"Ġsmoked":5173,"Ġexhibits":5174,"Ġmattress":5175,"Ġnicer":5176,"desp":5177,"home":5178,"kins":5179,"mine":5180,"Ġsix":5181,"Ġpec":5182,"Ġpanda":5183,"Ġgall":5184,"Ġchop":5185,"mendous":5186,"osh":5187,"ourmet":5188,"ksh":5189,"Ġupstairs":5190,"absolute":5191,"ianc":5192,"Ġplastic":5193,"Ġcharac":5194,"Ġchina":5195,"Ġpayment":5196,"Ġgreeting":5197,"Ġbowling":5198,"Ġcalzone":5199,"Ġhanging":5200,"Ġwonderfully":5201,"Ġfollowed":5202,"Ġalternative":5203,"Ġflavored":5204,"bby":5205,"cakes":5206,"nuts":5207,"three":5208,"rel":5209,"Ġfi":5210,"Ġfet":5211,"Ġtag":5212,"Ġtenders":5213,"meat":5214,"Ġrave":5215,"quate":5216,"Ġketch":5217,"celled":5218,"Ġcompar":5219,"Ġveal":5220,"exc":5221,"Ġbecame":5222,"Ġseasonal":5223,"Ġbedside":5224,"Ġfloors":5225,"Ġheadache":5226,"Ġmahi":5227,"Ġtrained":5228,"incere":5229,"Ġsupporting":5230,"looking":5231,"Ġcapit":5232,"besides":5233,"Ġvanilla":5234,"Ġpeanut":5235,"Ġnapkins":5236,"classic":5237,"Ġsilverware":5238,"regard":5239,"Ġpiping":5240,"despite":5241,"Ġketchup":5242,"watu":5243,"Ġfiance":5244,"Ġfianc":5245,"Ġore":5246,"oust":5247,"store":5248,"Ġatroc":5249,"Ġjoy":5250,"Ġshakes":5251,"resent":5252,"Ġtill":5253,"Ġcoke":5254,"ichoke":5255,"Ġdrag":5256,"Ġcourses":5257,"staffed":5258,"Ġcheckout":5259,"Ġcostumer":5260,"Ġclosing":5261,"Ġpancake":5262,"Ġearlier":5263,"Ġplanning":5264,"Ġdeserts":5265,"Ġbrowns":5266,"Ġtrend":5267,"ivid":5268,"Ġgrooming":5269,"Ġdistance":5270,"Ġdisplay":5271,"Ġespresso":5272,"Ġtexas":5273,"Ġtherap":5274,"watukee":5275,"Ġatrocious":5276,"joh":5277,"mari":5278,"sas":5279,"Ġes":5280,"Ġvers":5281,"Ġsimi":5282,"ception":5283,"Ġpine":5284,"Ġpup":5285,"Ġcro":5286,"Ġgourmet":5287,"lend":5288,"Ġresol":5289,"Ġinsist":5290,"Ġchorizo":5291,"Ġexec":5292,"unacceptable":5293,"Ġsup":5294,"Ġugly":5295,"Ġeverybody":5296,"Ġstarving":5297,"Ġbreath":5298,"Ġphys":5299,"Ġsalsas":5300,"beware":5301,"Ġhomey":5302,"Ġmayo":5303,"Ġgarage":5304,"Ġindivid":5305,"Ġwarning":5306,"Ġsouthwest":5307,"Ġfaces":5308,"Ġhurt":5309,"Ġhurry":5310,"Ġlearned":5311,"salsa":5312,"Ġfigured":5313,"Ġsnacks":5314,"Ġcharging":5315,"Ġfashioned":5316,"Ġupgrade":5317,"Ġproceeded":5318,"Ġsavory":5319,"Ġcuban":5320,"john":5321,"Ġsimilar":5322,"eated":5323,"soup":5324,"va":5325,"Ġade":5326,"Ġwood":5327,"Ġoily":5328,"Ġdj":5329,"Ġdingy":5330,"esy":5331,"isor":5332,"mean":5333,"Ġlime":5334,"ization":5335,"Ġunfortunate":5336,"Ġteas":5337,"Ġadvent":5338,"Ġrepeated":5339,"Ġdresses":5340,"Ġseconds":5341,"Ġindoor":5342,"Ġcardboard":5343,"Ġdetailed":5344,"Ġmilksh":5345,"Ġcups":5346,"Ġapplebee":5347,"Ġmiso":5348,"Ġlearn":5349,"Ġresponsive":5350,"Ġfingers":5351,"Ġbaristas":5352,"Ġchimichanga":5353,"Ġahwatukee":5354,"Ġdespite":5355,"Ġadequate":5356,"lies":5357,"uary":5358,"water":5359,"yet":5360,"Ġsincere":5361,"Ġihop":5362,"Ġcandy":5363,"Ġhers":5364,"Ġoven":5365,"lame":5366,"Ġbeware":5367,"Ġrain":5368,"Ġlimo":5369,"Ġvalet":5370,"Ġcarn":5371,"Ġappall":5372,"Ġburro":5373,"Ġdivine":5374,"Ġunderwhelming":5375,"Ġservings":5376,"Ġmustard":5377,"Ġsketch":5378,"Ġappetizing":5379,"Ġmessy":5380,"Ġorganization":5381,"Ġmemories":5382,"Ġbrews":5383,"Ġlistened":5384,"Ġfalling":5385,"Ġhumor":5386,"Ġlemonade":5387,"Ġblend":5388,"Ġmartin":5389,"Ġcancel":5390,"Ġcroiss":5391,"Ġsketchy":5392,"uh":5393,"wel":5394,"Ġsang":5395,"Ġfoc":5396,"aters":5397,"isu":5398,"Ġreco":5399,"iram":5400,"chand":5401,"chini":5402,"Ġje":5403,"Ġstaffed":5404,"Ġkab":5405,"ilian":5406,"itted":5407,"Ġcancelled":5408,"Ġshell":5409,"Ġnews":5410,"Ġdownright":5411,"Ġpatty":5412,"ission":5413,"Ġleather":5414,"Ġrealize":5415,"Ġexceeded":5416,"Ġdepressing":5417,"Ġsigned":5418,"Ġthanksgiving":5419,"true":5420,"Ġboxes":5421,"Ġcents":5422,"clearly":5423,"Ġconcerned":5424,"ucchini":5425,"Ġcourtesy":5426,"Ġscene":5427,"eteria":5428,"Ġprescription":5429,"iramisu":5430,"chandise":5431,"dro":5432,"Ġx":5433,"Ġgum":5434,"edd":5435,"mel":5436,"Ġcam":5437,"igate":5438,"Ġbrakes":5439,"aret":5440,"onsider":5441,"Ġbrother":5442,"Ġlively":5443,"Ġlistens":5444,"Ġartichoke":5445,"Ġengaging":5446,"Ġpractices":5447,"Ġrecip":5448,"Ġirish":5449,"Ġtechnicians":5450,"Ġutter":5451,"Ġseparate":5452,"Ġmerchandise":5453,"fail":5454,"mary":5455,"pot":5456,"tip":5457,"ug":5458,"uth":5459,"xious":5460,"ying":5461,"ered":5462,"Ġbf":5463,"Ġdude":5464,"Ġrell":5465,"Ġya":5466,"Ġlol":5467,"Ġamaz":5468,"anded":5469,"mped":5470,"Ġdisappoints":5471,"everytime":5472,"Ġwhenever":5473,"Ġsmart":5474,"Ġdiag":5475,"Ġunderstaffed":5476,"Ġlarger":5477,"onsin":5478,"Ġsky":5479,"Ġgeneric":5480,"zones":5481,"Ġcramped":5482,"isconsin":5483,"Ġtrader":5484,"Ġcollection":5485,"Ġsooooo":5486,"Ġstylists":5487,"workers":5488,"Ġvehicles":5489,"Ġfatty":5490,"Ġelev":5491,"Ġcompanies":5492,"Ġresponded":5493,"Ġurgent":5494,"Ġfucking":5495,"thusi":5496,"Ġpecan":5497,"rage":5498,"tac":5499,"Ġwestern":5500,"Ġwisconsin":5501,"Ġbes":5502,"orrow":5503,"Ġtoy":5504,"omb":5505,"Ġinit":5506,"urt":5507,"ading":5508,"Ġsaving":5509,"andom":5510,"amond":5511,"Ġbreast":5512,"ift":5513,"Ġstays":5514,"Ġlease":5515,"Ġcontain":5516,"Ġpricy":5517,"Ġsupplies":5518,"Ġhaircuts":5519,"Ġhearty":5520,"Ġaccident":5521,"Ġcompliments":5522,"Ġstudio":5523,"Ġcigaret":5524,"Ġconcerns":5525,"Ġpesto":5526,"Ġindustry":5527,"Ġpuffs":5528,"rageous":5529,"four":5530,"ki":5531,"menu":5532,"mans":5533,"pan":5534,"those":5535,"inos":5536,"Ġbird":5537,"ata":5538,"Ġtoes":5539,"alse":5540,"Ġforced":5541,"che":5542,"Ġlives":5543,"Ġlock":5544,"Ġarc":5545,"Ġapps":5546,"Ġbugs":5547,"Ġwritten":5548,"Ġkinds":5549,"Ġweekly":5550,"Ġsevere":5551,"Ġconfirm":5552,"expected":5553,"Ġspeed":5554,"Ġinstallation":5555,"Ġreplacement":5556,"Ġgrande":5557,"Ġyelling":5558,"Ġoysters":5559,"Ġpineapple":5560,"Ġinsisted":5561,"manship":5562,"bit":5563,"pat":5564,"ple":5565,"tom":5566,"Ġage":5567,"Ġwaters":5568,"Ġbands":5569,"ising":5570,"Ġlee":5571,"ria":5572,"Ġfort":5573,"usion":5574,"unning":5575,"antage":5576,"Ġlied":5577,"Ġkfc":5578,"loaf":5579,"Ġenthusi":5580,"Ġworkout":5581,"Ġworthy":5582,"Ġcarol":5583,"Ġsteve":5584,"Ġdiamond":5585,"Ġlasted":5586,"Ġnowhere":5587,"Ġindeed":5588,"Ġproviding":5589,"Ġtomorrow":5590,"grity":5591,"Ġ11":5592,"Ġpools":5593,"undred":5594,"Ġcucum":5595,"Ġrequests":5596,"Ġpublic":5597,"Ġinstalled":5598,"Ġdoughnuts":5599,"Ġassistant":5600,"Ġbuns":5601,"Ġsunset":5602,"Ġpriority":5603,"Ġultimate":5604,"Ġchowder":5605,"Ġcafeteria":5606,"full":5607,"uan":5608,"Ġsight":5609,"Ġsca":5610,"reed":5611,"Ġpour":5612,"Ġgal":5613,"Ġmaster":5614,"ona":5615,"Ġrehe":5616,"Ġrede":5617,"Ġinch":5618,"Ġchops":5619,"adise":5620,"Ġjerk":5621,"Ġrow":5622,"Ġframes":5623,"Ġconcept":5624,"Ġunable":5625,"Ġtwist":5626,"lied":5627,"Ġzucchini":5628,"Ġfreez":5629,"Ġattitudes":5630,"ground":5631,"Ġsunda":5632,"Ġstrips":5633,"Ġtypes":5634,"Ġfollowing":5635,"Ġpurchasing":5636,"Ġclientele":5637,"Ġdefinately":5638,"Ġmicrowave":5639,"Ġinventory":5640,"Ġcomputer":5641,"Ġredeem":5642,"gie":5643,"oiled":5644,"ron":5645,"tf":5646,"Ġtiramisu":5647,"Ġhills":5648,"Ġhrs":5649,"Ġhubby":5650,"Ġom":5651,"Ġlaw":5652,"itation":5653,"acist":5654,"uses":5655,"unt":5656,"Ġaside":5657,"Ġrack":5658,"Ġspoiled":5659,"Ġoutrageous":5660,"ective":5661,"Ġrides":5662,"Ġvisitors":5663,"Ġwalnut":5664,"Ġkeys":5665,"Ġhardware":5666,"upon":5667,"Ġpromise":5668,"Ġexciting":5669,"Ġadvantage":5670,"Ġamerica":5671,"Ġassort":5672,"Ġrespectful":5673,"hope":5674,"Ġsquare":5675,"Ġcelebrate":5676,"Ġtamales":5677,"Ġadmit":5678,"Ġeastern":5679,"Ġvideo":5680,"Ġcharacter":5681,"Ġindividual":5682,"Ġsangria":5683,"cour":5684,"ja":5685,"lines":5686,"Ġcult":5687,"oud":5688,"Ġep":5689,"ico":5690,"ppies":5691,"Ġshirts":5692,"osit":5693,"Ġvine":5694,"Ġgrow":5695,"gged":5696,"berty":5697,"Ġreviewers":5698,"Ġpastrami":5699,"Ġfinest":5700,"Ġcompleted":5701,"Ġfishy":5702,"Ġfreak":5703,"Ġskimp":5704,"Ġentirely":5705,"Ġsuppose":5706,"Ġownership":5707,"Ġcondi":5708,"Ġpopcorn":5709,"Ġcabbage":5710,"Ġwinter":5711,"hopefully":5712,"Ġpaperwork":5713,"Ġblueberry":5714,"Ġsamples":5715,"Ġsampler":5716,"Ġjalape":5717,"Ġstudents":5718,"Ġinconvenience":5719,"Ġcheesesteak":5720,"Ġpeaceful":5721,"Ġintegrity":5722,"husband":5723,"hidden":5724,"tw":5725,"Ġid":5726,"Ġbone":5727,"Ġhundred":5728,"ury":5729,"rogant":5730,"Ġsake":5731,"Ġasks":5732,"quet":5733,"Ġagainst":5734,"Ġstarts":5735,"indy":5736,"Ġbrings":5737,"Ġattract":5738,"Ġbub":5739,"Ġbreaded":5740,"Ġbreading":5741,"Ġbreadsticks":5742,"Ġmeatloaf":5743,"Ġcorned":5744,"Ġvarious":5745,"Ġairports":5746,"waiter":5747,"spicy":5748,"Ġ24":5749,"Ġlube":5750,"Ġbrewery":5751,"Ġbikes":5752,"Ġyogurt":5753,"Ġguarantee":5754,"surprisingly":5755,"Ġeyebrows":5756,"cheese":5757,"Ġcarnitas":5758,"eddar":5759,"cas":5760,"date":5761,"dam":5762,"mw":5763,"mond":5764,"rup":5765,"tes":5766,"Ġfired":5767,"Ġmr":5768,"Ġdig":5769,"ril":5770,"uted":5771,"entive":5772,"Ġchopped":5773,"Ġexag":5774,"oss":5775,"intage":5776,"ilton":5777,"rylic":5778,"Ġagreed":5779,"whatever":5780,"Ġcart":5781,"Ġappeared":5782,"Ġdinning":5783,"Ġrose":5784,"Ġrobert":5785,"Ġcheeses":5786,"Ġacrylic":5787,"Ġpastas":5788,"avigate":5789,"Ġaddress":5790,"Ġprepare":5791,"Ġapologetic":5792,"Ġcommon":5793,"Ġjoints":5794,"Ġmassages":5795,"Ġadvise":5796,"attentive":5797,"Ġomelets":5798,"Ġsyrup":5799,"Ġlevels":5800,"Ġsquee":5801,"Ġfamous":5802,"reasonably":5803,"Ġaccessories":5804,"Ġharbor":5805,"Ġtickets":5806,"Ġinspection":5807,"Ġpretzel":5808,"Ġspecific":5809,"Ġdegrees":5810,"Ġdestination":5811,"Ġchunks":5812,"Ġtucked":5813,"Ġbargain":5814,"Ġexagger":5815,"bear":5816,"ipping":5817,"lu":5818,"mbers":5819,"tasted":5820,"wash":5821,"Ġfond":5822,"Ġpit":5823,"Ġcats":5824,"Ġgoo":5825,"Ġdavid":5826,"Ġnavigate":5827,"Ġtost":5828,"Ġecle":5829,"icilian":5830,"Ġjuly":5831,"Ġaspect":5832,"Ġrad":5833,"Ġprec":5834,"owned":5835,"ified":5836,"ctic":5837,"exception":5838,"Ġadjust":5839,"Ġstudy":5840,"Ġreput":5841,"Ġhimself":5842,"Ġbitter":5843,"field":5844,"Ġfacial":5845,"Ġcalzones":5846,"Ġinsul":5847,"btw":5848,"Ġelegant":5849,"Ġwaxing":5850,"iffy":5851,"Ġarrangements":5852,"Ġeclectic":5853,"during":5854,"half":5855,"pical":5856,"zed":5857,"third":5858,"Ġwise":5859,"Ġtrees":5860,"ording":5861,"orrect":5862,"Ġdom":5863,"Ġcheddar":5864,"Ġjunk":5865,"Ġrandom":5866,"Ġvintage":5867,"ortun":5868,"Ġunbelievably":5869,"Ġdraw":5870,"Ġdied":5871,"Ġresident":5872,"Ġhighest":5873,"Ġflour":5874,"ordinary":5875,"Ġinteract":5876,"Ġbilling":5877,"Ġhappening":5878,"Ġpassionate":5879,"Ġadvance":5880,"Ġbottles":5881,"phenomenal":5882,"ambled":5883,"Ġsoooooo":5884,"Ġtremendous":5885,"Ġhamburgers":5886,"Ġbiscuit":5887,"Ġphotos":5888,"basically":5889,"Ġopportun":5890,"Ġsubstit":5891,"Ġintroduced":5892,"dan":5893,"done":5894,"felt":5895,"liance":5896,"ught":5897,"Ġfu":5898,"ined":5899,"Ġbang":5900,"Ġbmw":5901,"Ġpap":5902,"Ġgun":5903,"Ġmign":5904,"Ġeh":5905,"star":5906,"ician":5907,"Ġstone":5908,"Ġplague":5909,"Ġchir":5910,"Ġjam":5911,"Ġrout":5912,"Ġsuits":5913,"Ġalley":5914,"opract":5915,"Ġourselves":5916,"Ġhey":5917,"Ġarrogant":5918,"Ġburgh":5919,"Ġafterwards":5920,"Ġkelly":5921,"necessary":5922,"sauce":5923,"Ġweekday":5924,"race":5925,"Ġcontract":5926,"Ġcutting":5927,"Ġvalent":5928,"Ġputs":5929,"superb":5930,"Ġlaund":5931,"Ġinclude":5932,"Ġassum":5933,"Ġbelly":5934,"Ġmovies":5935,"Ġhistor":5936,"odka":5937,"Ġcatering":5938,"Ġlabor":5939,"Ġimprovement":5940,"Ġassume":5941,"Ġliquor":5942,"Ġprocedure":5943,"Ġmignon":5944,"Ġchiropract":5945,"cchi":5946,"dough":5947,"Ġsla":5948,"Ġsicilian":5949,"insp":5950,"Ġboo":5951,"Ġhilton":5952,"Ġob":5953,"Ġoct":5954,"Ġmat":5955,"Ġmail":5956,"inger":5957,"Ġbeverage":5958,"Ġalmond":5959,"Ġjess":5960,"Ġdoc":5961,"Ġray":5962,"Ġvodka":5963,"Ġagent":5964,"Ġstarting":5965,"Ġdelay":5966,"nocchi":5967,"Ġdrain":5968,"Ġfunky":5969,"Ġbreakfasts":5970,"Ġincorrect":5971,"Ġdesper":5972,"Ġrolled":5973,"Ġarrival":5974,"Ġdeposit":5975,"Ġchains":5976,"Ġspiced":5977,"Ġapproach":5978,"becue":5979,"Ġreferred":5980,"Ġforgettable":5981,"Ġforgotten":5982,"pathetic":5983,"Ġreminds":5984,"Ġassociate":5985,"Ġmartini":5986,"Ġexhibit":5987,"Ġjalap":5988,"Ġkatsu":5989,"Ġtrendy":5990,"Ġdiagn":5991,"fl":5992,"find":5993,"norm":5994,"under":5995,"vs":5996,"wall":5997,"Ġfight":5998,"Ġbs":5999,"Ġtight":6000,"Ġtub":6001,"Ġcable":6002,"Ġhom":6003,"Ġheck":6004,"Ġnames":6005,"isque":6006,"Ġtopped":6007,"stone":6008,"usual":6009,"Ġcherry":6010,"Ġlover":6011,"Ġjiffy":6012,"Ġsocial":6013,"Ġstaffs":6014,"Ġunexpected":6015,"Ġcraw":6016,"Ġclerk":6017,"Ġdownstairs":6018,"Ġsteal":6019,"Ġblame":6020,"sels":6021,"Ġpastor":6022,"Ġpotential":6023,"Ġrunny":6024,"Ġpickup":6025,"Ġcheapest":6026,"Ġaccomod":6027,"god":6028,"Ġthoughtful":6029,"itionally":6030,"Ġremembers":6031,"amba":6032,"without":6033,"Ġsounded":6034,"Ġnyc":6035,"Ġencour":6036,"Ġscrambled":6037,"Ġchatting":6038,"generous":6039,"additionally":6040,"holy":6041,"Ġappealing":6042,"sandwiches":6043,"terrific":6044,"bing":6045,"bri":6046,"ped":6047,"Ġ@":6048,"Ġaud":6049,"ering":6050,"inside":6051,"Ġbisque":6052,"Ġpi":6053,"Ġcouch":6054,"Ġwasnt":6055,"itions":6056,"Ġstains":6057,"aca":6058,"Ġmeant":6059,"anted":6060,"Ġlibr":6061,"Ġsuit":6062,"sever":6063,"Ġdem":6064,"nobody":6065,"noxious":6066,"Ġdined":6067,"Ġbueno":6068,"Ġtrio":6069,"Ġadding":6070,"Ġpao":6071,"Ġairways":6072,"Ġends":6073,"Ġtrips":6074,"Ġartists":6075,"Ġtouched":6076,"Ġchances":6077,"Ġbrian":6078,"Ġcontacted":6079,"lastly":6080,"Ġtraveling":6081,"Ġoperation":6082,"Ġassistance":6083,"Ġgroomer":6084,"Ġelect":6085,"paid":6086,"Ġrotten":6087,"Ġwhether":6088,"Ġsirloin":6089,"bathrooms":6090,"Ġbesides":6091,"Ġlibrary":6092,"def":6093,"emy":6094,"gave":6095,"ials":6096,"lim":6097,"little":6098,"Ġbou":6099,"Ġborder":6100,"asked":6101,"Ġms":6102,"Ġdedic":6103,"Ġdirt":6104,"Ġnational":6105,"Ġrefried":6106,"otic":6107,"Ġbecoming":6108,"Ġchai":6109,"chris":6110,"unique":6111,"Ġvent":6112,"ils":6113,"Ġenemy":6114,"Ġworker":6115,"Ġdev":6116,"Ġunnecessary":6117,"owners":6118,"Ġappliance":6119,"Ġbrake":6120,"Ġrudely":6121,"Ġbob":6122,"Ġboiled":6123,"Ġsurely":6124,"liest":6125,"Ġreply":6126,"Ġactiv":6127,"Ġneighbors":6128,"Ġdecorations":6129,"Ġtony":6130,"Ġturns":6131,"Ġconvenience":6132,"Ġremark":6133,"Ġfrustration":6134,"Ġtopping":6135,"Ġappropriate":6136,"steve":6137,"Ġswim":6138,"Ġlegs":6139,"Ġmiche":6140,"Ġattended":6141,"Ġdesigns":6142,"Ġnursery":6143,"incredibly":6144,"recommended":6145,"surd":6146,"Ġtailor":6147,"damn":6148,"exceptional":6149,"dessert":6150,"flow":6151,"iantly":6152,"prom":6153,"yle":6154,"Ġace":6155,"erent":6156,"Ġtheme":6157,"Ġgnocchi":6158,"Ġlv":6159,"verages":6160,"Ġeager":6161,"start":6162,"Ġchi":6163,"Ġwheat":6164,"Ġjan":6165,"ouses":6166,"Ġrud":6167,"Ġspread":6168,"Ġdisapp":6169,"Ġuseless":6170,"Ġparadise":6171,"iana":6172,"beef":6173,"Ġways":6174,"Ġdime":6175,"avior":6176,"Ġoffering":6177,"Ġexceed":6178,"Ġsetup":6179,"Ġextraordinary":6180,"Ġsigns":6181,"Ġfabric":6182,"Ġpassion":6183,"Ġcalories":6184,"Ġbehavior":6185,"Ġmax":6186,"Ġvegetarians":6187,"Ġremoved":6188,"Ġamericanized":6189,"Ġapproached":6190,"Ġhorrific":6191,"Ġrotation":6192,"Ġcelebration":6193,"Ġrecords":6194,"Ġhoagies":6195,"Ġdependable":6196,"Ġhygienist":6197,"Ġscreen":6198,"Ġoregan":6199,"dave":6200,"david":6201,"mail":6202,"male":6203,"pes":6204,"ring":6205,"rance":6206,"Ġai":6207,"Ġau":6208,"erence":6209,"Ġhes":6210,"Ġdut":6211,"Ġisland":6212,"Ġtoys":6213,"Ġtowards":6214,"stop":6215,"around":6216,"Ġbeverages":6217,"Ġyuck":6218,"irky":6219,"Ġweight":6220,"Ġample":6221,"Ġsew":6222,"osa":6223,"Ġsuff":6224,"Ġnoise":6225,"hey":6226,"Ġframe":6227,"istent":6228,"Ġpep":6229,"Ġdebit":6230,"Ġcanno":6231,"everybody":6232,"Ġbrow":6233,"Ġbrows":6234,"Ġfaster":6235,"Ġgrace":6236,"Ġwrapped":6237,"Ġdealer":6238,"Ġkindness":6239,"Ġmexico":6240,"Ġpatience":6241,"Ġlead":6242,"Ġcomforting":6243,"Ġapril":6244,"ignment":6245,"Ġcouples":6246,"Ġvia":6247,"Ġlisted":6248,"Ġadds":6249,"Ġsignature":6250,"Ġconference":6251,"Ġdiscuss":6252,"Ġsonic":6253,"Ġrented":6254,"Ġrenting":6255,"Ġordinary":6256,"Ġconcert":6257,"Ġmachaca":6258,"Ġshock":6259,"Ġgentlemen":6260,"Ġripoff":6261,"bbie":6262,"ormous":6263,"Ġmicrowaved":6264,"Ġpretzels":6265,"Ġhoagie":6266,"Ġidiots":6267,"regardless":6268,"Ġcucumber":6269,"bow":6270,"sound":6271,"ucc":6272,"viche":6273,"Ġess":6274,"rend":6275,"Ġbiz":6276,"Ġtorn":6277,"Ġpier":6278,"atives":6279,"Ġgf":6280,"Ġglo":6281,"oured":6282,"eni":6283,"Ġnugg":6284,"anna":6285,"Ġeas":6286,"Ġeve":6287,"Ġbegan":6288,"ades":6289,"ched":6290,"chata":6291,"Ġjamba":6292,"Ġroot":6293,"Ġlind":6294,"Ġtooth":6295,"Ġpeach":6296,"Ġfemale":6297,"Ġbarbecue":6298,"ensils":6299,"Ġmodel":6300,"Ġmarch":6301,"Ġthrown":6302,"Ġrepaired":6303,"Ġrepresent":6304,"Ġacted":6305,"prise":6306,"Ġairlines":6307,"Ġstops":6308,"ancy":6309,"waiting":6310,"pretentious":6311,"Ġestimate":6312,"spent":6313,"Ġmassive":6314,"Ġcraf":6315,"Ġremote":6316,"Ġbuttery":6317,"Ġignore":6318,"Ġcupcakes":6319,"Ġapprox":6320,"Ġangel":6321,"Ġquestionable":6322,"Ġcompassion":6323,"Ġlaughing":6324,"Ġutensils":6325,"Ġminimal":6326,"pasta":6327,"Ġdancing":6328,"Ġassortment":6329,"dal":6330,"hubby":6331,"ls":6332,"later":6333,"treat":6334,"ume":6335,"win":6336,"wife":6337,"Ġsno":6338,"Ġbless":6339,"Ġtso":6340,"Ġtree":6341,"Ġtang":6342,"Ġpill":6343,"Ġpound":6344,"Ġdread":6345,"Ġnamed":6346,"Ġtho":6347,"ict":6348,"Ġcha":6349,"antro":6350,"Ġbutt":6351,"sea":6352,"Ġfrit":6353,"ilantro":6354,"appro":6355,"Ġstarters":6356,"Ġpregn":6357,"Ġoverwhelming":6358,"Ġfeat":6359,"Ġbuds":6360,"Ġstepped":6361,"Ġgrey":6362,"Ġproud":6363,"Ġscott":6364,"Ġsurprising":6365,"Ġsmelly":6366,"Ġblt":6367,"Ġsubpar":6368,"Ġceil":6369,"Ġsignific":6370,"umpy":6371,"Ġhopes":6372,"Ġdamage":6373,"Ġcreated":6374,"Ġhearing":6375,"Ġdiscounts":6376,"Ġbuddy":6377,"Ġblew":6378,"Ġbeauty":6379,"location":6380,"Ġarrangement":6381,"Ġirritated":6382,"Ġrecogn":6383,"Ġbubble":6384,"Ġobnoxious":6385,"10":6386,"Very":6387,"bana":6388,"eh":6389,"five":6390,"lest":6391,"pedi":6392,"Ġsli":6393,"Ġcert":6394,"Ġcilantro":6395,"Ġoz":6396,"Ġoak":6397,"Ġoli":6398,"Ġnative":6399,"itty":6400,"rick":6401,"Ġtoss":6402,"Ġwil":6403,"Ġjer":6404,"acky":6405,"osas":6406,"Ġcomments":6407,"outs":6408,"Ġriver":6409,"Ġoverrated":6410,"Ġunre":6411,"Ġperhaps":6412,"Ġtrack":6413,"turns":6414,"Ġentrance":6415,"Ġtops":6416,"Ġmussels":6417,"Ġcrepes":6418,"airy":6419,"Ġmonthly":6420,"Ġvibes":6421,"Ġprepar":6422,"Ġthankful":6423,"Ġpainless":6424,"Ġideas":6425,"Ġpractically":6426,"Ġasset":6427,"Ġcombinations":6428,"Ġholes":6429,"Ġtransfer":6430,"Ġmuffin":6431,"Ġminimum":6432,"bartenders":6433,"Ġrelleno":6434,"Ġreheated":6435,"Ġfreakin":6436,"several":6437,"aa":6438,"bi":6439,"grace":6440,"iving":6441,"los":6442,"taking":6443,"za":6444,"Ġq":6445,"Ġwan":6446,"Ġfed":6447,"Ġtai":6448,"Ġpin":6449,"Ġpen":6450,"Ġport":6451,"Ġcir":6452,"Ġgear":6453,"Ġmas":6454,"Ġmim":6455,"orage":6456,"Ġdates":6457,"ises":6458,"rict":6459,"otto":6460,"ald":6461,"Ġstunning":6462,"Ġyard":6463,"cher":6464,"Ġfrills":6465,"Ġsoap":6466,"affic":6467,"Ġsuite":6468,"illage":6469,"Ġcole":6470,"Ġfreshest":6471,"Ġunusual":6472,"Ġsalted":6473,"Ġgrub":6474,"Ġgracious":6475,"nery":6476,"Ġadult":6477,"Ġmold":6478,"Ġchecks":6479,"arian":6480,"Ġpace":6481,"Ġinstantly":6482,"spend":6483,"Ġconfident":6484,"Ġbooking":6485,"Ġmatters":6486,"Ġshots":6487,"Ġcheer":6488,"Ġreminded":6489,"Ġflying":6490,"Ġpatronize":6491,"Ġfooled":6492,"Ġrenovated":6493,"Ġidiot":6494,"bartender":6495,"Ġcoworkers":6496,"Ġflorist":6497,"Ġcapital":6498,"Ġvinegar":6499,"Ġjalapeo":6500,"inspired":6501,"normally":6502,"enius":6503,"smo":6504,"wine":6505,"Ġsus":6506,"Ġpal":6507,"Ġpants":6508,"Ġheld":6509,"Ġginger":6510,"Ġmi":6511,"Ġdairy":6512,"Ġnick":6513,"isite":6514,"Ġwasabi":6515,"Ġtodd":6516,"lack":6517,"Ġbeats":6518,"ental":6519,"urope":6520,"Ġwei":6521,"Ġnecessary":6522,"afford":6523,"quisite":6524,"Ġliking":6525,"Ġkno":6526,"hell":6527,"tyard":6528,"Ġours":6529,"ieved":6530,"Ġoffic":6531,"Ġoverchar":6532,"Ġminus":6533,"care":6534,"Ġlunches":6535,"Ġrobin":6536,"Ġgrass":6537,"update":6538,"Ġstands":6539,"Ġmistakes":6540,"Ġcreate":6541,"Ġbridal":6542,"greasy":6543,"Ġgroceries":6544,"Ġgroomers":6545,"Ġsmokey":6546,"Ġdistrict":6547,"local":6548,"Ġadvertising":6549,"Ġblock":6550,"efficient":6551,"Ġappearance":6552,"visited":6553,"Ġunimpressed":6554,"Ġsmoky":6555,"renched":6556,"Ġsatisfaction":6557,"Ġinitial":6558,"Ġattractive":6559,"limited":6560,"affordable":6561,"bef":6562,"pick":6563,"sam":6564,"yep":6565,"Ġum":6566,"inste":6567,"ased":6568,"Ġhush":6569,"Ġdrenched":6570,"stri":6571,"Ġexch":6572,"adas":6573,"Ġtil":6574,"Ġlil":6575,"Ġsport":6576,"Ġspoon":6577,"Ġkung":6578,"lol":6579,"Ġtheirs":6580,"Ġstarter":6581,"Ġoffended":6582,"Ġfellow":6583,"Ġunion":6584,"agus":6585,"agne":6586,"Ġcompens":6587,"Ġsandwhich":6588,"beyond":6589,"Ġkevin":6590,"Ġreplied":6591,"Ġeffective":6592,"mmed":6593,"Ġdressed":6594,"Ġcontinues":6595,"Ġceviche":6596,"paragus":6597,"Ġadvised":6598,"ometime":6599,"green":6600,"pricing":6601,"Ġattendant":6602,"Ġentering":6603,"Ġroof":6604,"Ġpuppy":6605,"interesting":6606,"Ġinfo":6607,"Ġphysician":6608,"Ġadventure":6609,"Ġomg":6610,"rendous":6611,"before":6612,"instein":6613,"serv":6614,"ties":6615,"taste":6616,"yce":6617,"Ġayce":6618,"thew":6619,"Ġsink":6620,"Ġhint":6621,"Ġod":6622,"enos":6623,"riott":6624,"Ġeurope":6625,"strong":6626,"lava":6627,"Ġstations":6628,"Ġstorage":6629,"acle":6630,"cha":6631,"Ġjudge":6632,"Ġfriendliest":6633,"Ġshaved":6634,"Ġasap":6635,"Ġasparagus":6636,"Ġrust":6637,"ques":6638,"Ġlif":6639,"Ġlimp":6640,"Ġquit":6641,"Ġqual":6642,"Ġabsurd":6643,"Ġcod":6644,"inds":6645,"Ġmanners":6646,"Ġtraffic":6647,"Ġbyob":6648,"Ġstew":6649,"berries":6650,"Ġpastry":6651,"Ġflu":6652,"mmmm":6653,"Ġmessages":6654,"Ġsupply":6655,"keeping":6656,"Ġjuke":6657,"Ġcalm":6658,"phone":6659,"Ġhorchata":6660,"Ġmetro":6661,"Ġsymp":6662,"Ġsquash":6663,"Ġdoughy":6664,"Ġeric":6665,"Ġerror":6666,"Ġdefiantly":6667,"Ġiron":6668,"Ġcarpets":6669,"Ġscheduling":6670,"Ġscenery":6671,"Ġblond":6672,"Ġcarrots":6673,"Ġinsanely":6674,"Ġchallen":6675,"Ġchalleng":6676,"Ġpuppies":6677,"decor":6678,"Ġalex":6679,"Ġfeta":6680,"excuse":6681,"potato":6682,"Ġamazed":6683,"Ġepic":6684,"Ġaccomodating":6685,"appropriate":6686,"Ġoakland":6687,"--":6688,"bought":6689,"bility":6690,"life":6691,"must":6692,"pool":6693,"ux":6694,"vd":6695,"vince":6696,"xible":6697,"Ġais":6698,"Ġfest":6699,"Ġbomb":6700,"Ġpur":6701,"atown":6702,"Ġmale":6703,"Ġnc":6704,"leading":6705,"Ġretail":6706,"Ġjun":6707,"Ġgoat":6708,"Ġspir":6709,"Ġcaught":6710,"hew":6711,"Ġquirky":6712,"Ġguide":6713,"Ġhotdo":6714,"cape":6715,"Ġowns":6716,"Ġopted":6717,"Ġexpired":6718,"friger":6719,"thats":6720,"Ġcourtyard":6721,"Ġslowest":6722,"Ġlesson":6723,"brought":6724,"Ġcurds":6725,"Ġraised":6726,"Ġhospitable":6727,"perfectly":6728,"Ġsprouts":6729,"Ġanswering":6730,"Ġdaughters":6731,"Ġsourdough":6732,"Ġhorrendous":6733,"Ġsmoothly":6734,"Ġcomplaining":6735,"Ġgrabbed":6736,"Ġdeserved":6737,"Ġskillet":6738,"Ġtaxi":6739,"Ġthrowing":6740,"bonus":6741,"Ġrisk":6742,"Ġcomparable":6743,"Ġutterly":6744,"Ġredeeming":6745,"Ġhistoric":6746,"strike":6747,"frigerator":6748,"cris":6749,"ell":6750,"lback":6751,"mac":6752,"possi":6753,"wless":6754,"Ġsometime":6755,"Ġmimi":6756,"Ġdefinite":6757,"Ġdave":6758,"anish":6759,"lyn":6760,"Ġrefrigerator":6761,"ota":6762,"ervisor":6763,"Ġgoodies":6764,"Ġload":6765,"endent":6766,"rolls":6767,"Ġworry":6768,"Ġsore":6769,"Ġshelf":6770,"Ġshipping":6771,"Ġfave":6772,"Ġspanish":6773,"open":6774,"Ġudon":6775,"Ġcoast":6776,"Ġworkmanship":6777,"owns":6778,"ifically":6779,"Ġflawless":6780,"Ġgrade":6781,"Ġgratu":6782,"friday":6783,"Ġwalks":6784,"ependent":6785,"told":6786,"sala":6787,"Ġmarks":6788,"Ġmarriott":6789,"Ġscore":6790,"Ġhandling":6791,"Ġstyles":6792,"Ġfills":6793,"gold":6794,"short":6795,"grap":6796,"Ġbedroom":6797,"Ġpassing":6798,"Ġmemor":6799,"Ġpainful":6800,"frank":6801,"Ġinsult":6802,"Ġideal":6803,"Ġpico":6804,"Ġpostino":6805,"Ġbrewed":6806,"Ġblackened":6807,"Ġboneless":6808,"Ġmisleading":6809,"Ġattending":6810,"Ġdesigned":6811,"secondly":6812,"iversity":6813,"Ġenterprise":6814,"Ġcigar":6815,"margar":6816,"Ġadvertised":6817,"score":6818,"Ġappears":6819,"Ġflexible":6820,"Ġlosing":6821,"Ġratings":6822,"stalg":6823,"welcome":6824,"Ġseverely":6825,"Ġculture":6826,"Ġcondiments":6827,"Ġopportunity":6828,"Ġmsg":6829,"Ġcheerful":6830,"possibly":6831,"Ġgratuity":6832,"crip":6833,"show":6834,"tables":6835,"vos":6836,"Ġ30":6837,"Ġsess":6838,"Ġimo":6839,"Ġfalse":6840,"Ġcvs":6841,"Ġgri":6842,"oop":6843,"lays":6844,"Ġstates":6845,"Ġserviced":6846,"Ġchimi":6847,"irmed":6848,"Ġexquisite":6849,"Ġjump":6850,"Ġjune":6851,"ulu":6852,"Ġron":6853,"quaint":6854,"Ġseven":6855,"Ġfather":6856,"osite":6857,"Ġcomb":6858,"Ġoutlets":6859,"Ġnostalg":6860,"Ġdiss":6861,"Ġfruits":6862,"Ġsomehow":6863,"izzling":6864,"mentary":6865,"Ġpeaks":6866,"Ġfreshness":6867,"Ġdece":6868,"Ġunlike":6869,"Ġunsatisfied":6870,"Ġuniversity":6871,"Ġhappily":6872,"Ġmocha":6873,"Ġdeclin":6874,"Ġmarsala":6875,"Ġpartner":6876,"Ġchinatown":6877,"Ġunderwhelmed":6878,"Ġdecently":6879,"Ġsalons":6880,"Ġbasis":6881,"Ġbaklava":6882,"Ġincludes":6883,"Ġcolorful":6884,"Ġengine":6885,"Ġlayover":6886,"Ġflights":6887,"Ġloyalty":6888,"Ġoccasionally":6889,"Ġsending":6890,"Ġmagic":6891,"Ġmagical":6892,"beatable":6893,"Ġkiller":6894,"kinda":6895,"umbled":6896,"salads":6897,"Ġhighlights":6898,"Ġashley":6899,"interested":6900,"Ġfrankly":6901,"Ġversion":6902,"lendale":6903,"Ġsupervisor":6904,"Ġmilkshakes":6905,"Ġkabob":6906,"Ġcarolina":6907,"Ġnuggets":6908,"Ġwilted":6909,"criptions":6910,"Ġdeclined":6911,"certain":6912,"dry":6913,"iant":6914,"ject":6915,"nings":6916,"smell":6917,"eria":6918,"Ġsong":6919,"Ġtend":6920,"Ġtad":6921,"Ġpoured":6922,"Ġcou":6923,"Ġhr":6924,"Ġmama":6925,"Ġnoon":6926,"Ġloose":6927,"Ġthri":6928,"itution":6929,"Ġeinstein":6930,"Ġree":6931,"Ġinattentive":6932,"Ġinappropriate":6933,"acul":6934,"Ġchick":6935,"Ġjeff":6936,"perhaps":6937,"terior":6938,"Ġsuites":6939,"Ġvillage":6940,"search":6941,"Ġpros":6942,"Ġproject":6943,"Ġanyways":6944,"agle":6945,"Ġcarts":6946,"Ġenjoys":6947,"Ġcamelback":6948,"anything":6949,"Ġmeaty":6950,"Ġdripping":6951,"pricey":6952,"Ġcasa":6953,"Ġpaul":6954,"alex":6955,"upied":6956,"Ġinstitution":6957,"Ġblizz":6958,"rilliant":6959,"Ġindependent":6960,"Ġsolution":6961,"Ġcurt":6962,"Ġmornings":6963,"Ġsundays":6964,"Ġfactor":6965,"Ġhangover":6966,"Ġfridays":6967,"Ġimmacul":6968,"Ġoccupied":6969,"Ġ20":6970,"Ġaccording":6971,"ruction":6972,"Ġsample":6973,"Ġhorrid":6974,"Ġentered":6975,"Ġharris":6976,"Ġholidays":6977,"Ġregardless":6978,"sooooo":6979,"Ġopposite":6980,"Ġyoga":6981,"Ġcrying":6982,"Ġlandmark":6983,"Ġfield":6984,"brian":6985,"Ġeasier":6986,"ban":6987,"clo":6988,"cost":6989,"crow":6990,"jim":6991,"run":6992,"rough":6993,"sing":6994,"Ġaqu":6995,"Ġwoo":6996,"Ġwtf":6997,"Ġbay":6998,"Ġpam":6999,"Ġcreme":7000,"Ġcact":7001,"ony":7002,"Ġlands":7003,"Ġlinks":7004,"Ġeagle":7005,"Ġrewards":7006,"Ġstack":7007,"etime":7008,"Ġlox":7009,"Ġfriendliness":7010,"Ġouting":7011,"Ġprofess":7012,"Ġenormous":7013,"Ġresturant":7014,"Ġuneven":7015,"Ġunpretentious":7016,"Ġuninspired":7017,"Ġunbeatable":7018,"Ġknowing":7019,"Ġeatery":7020,"Ġvend":7021,"Ġclt":7022,"Ġbug":7023,"reepy":7024,"Ġplant":7025,"Ġwrote":7026,"Ġtiming":7027,"arium":7028,"arma":7029,"Ġvalues":7030,"athy":7031,"ushed":7032,"Ġmainly":7033,"Ġwashing":7034,"Ġconfirmed":7035,"Ġtechn":7036,"Ġconsiderate":7037,"Ġtradition":7038,"ival":7039,"Ġemails":7040,"office":7041,"Ġaccessible":7042,"sooo":7043,"Ġfailure":7044,"Ġulta":7045,"Ġrangoon":7046,"Ġpeanuts":7047,"Ġswitched":7048,"Ġsanitary":7049,"Ġrisotto":7050,"Ġdirection":7051,"Ġscreaming":7052,"Ġherself":7053,"Ġtoyota":7054,"Ġsundae":7055,"Ġdesperate":7056,"Ġdedicated":7057,"prompt":7058,"Ġjanuary":7059,"Ġdisappeared":7060,"Ġcannoli":7061,"Ġgloves":7062,"ictor":7063,"Ġtossed":7064,"Ġaquarium":7065,"Ġprofession":7066,"aly":7067,"gary":7068,"gorgeous":7069,"main":7070,"miss":7071,"tro":7072,"Ġtone":7073,"Ġtank":7074,"Ġpers":7075,"Ġppl":7076,"Ġcere":7077,"Ġcop":7078,"Ġcreepy":7079,"Ġhir":7080,"Ġhook":7081,"Ġglendale":7082,"Ġmerry":7083,"Ġlately":7084,"veget":7085,"Ġtoler":7086,"Ġexterior":7087,"Ġjason":7088,"Ġshel":7089,"Ġvision":7090,"Ġdisgrace":7091,"Ġpei":7092,"Ġoverdone":7093,"Ġdiners":7094,"Ġroyal":7095,"assy":7096,"Ġextreme":7097,"ggie":7098,"amel":7099,"Ġresched":7100,"said":7101,"Ġpra":7102,"avo":7103,"sund":7104,"Ġinteraction":7105,"Ġexcuses":7106,"Ġlamp":7107,"Ġconsidered":7108,"Ġconditions":7109,"Ġwarn":7110,"Ġbottled":7111,"Ġluv":7112,"Ġwallet":7113,"Ġwontons":7114,"crappy":7115,"Ġfallen":7116,"Ġclearance":7117,"Ġconstruction":7118,"Ġhumble":7119,"Ġpanera":7120,"Ġtransaction":7121,"personal":7122,"Ġverde":7123,"Ġformer":7124,"Ġfinger":7125,"Ġspecifically":7126,"Ġunimpressive":7127,"Ġjimmy":7128,"Ġelevator":7129,"Ġcigarette":7130,"Ġenthusiastic":7131,"Ġsqueezed":7132,"Ġactivities":7133,"Ġremarkable":7134,"Ġpreparation":7135,"Ġchallenging":7136,"**":7137,"ethe":7138,"ium":7139,"ios":7140,"pay":7141,"panc":7142,"ray":7143,"watch":7144,"Ġfits":7145,"Ġfirm":7146,"Ġbored":7147,"Ġcous":7148,"Ġmort":7149,"lli":7150,"Ġdang":7151,"Ġdumb":7152,"anes":7153,"iced":7154,"Ġwiped":7155,"Ġalike":7156,"adium":7157,"comes":7158,"Ġshift":7159,"things":7160,"logy":7161,"Ġvis":7162,"amame":7163,"Ġpremi":7164,"Ġcompare":7165,"oston":7166,"ify":7167,"Ġworthless":7168,"Ġargu":7169,"exper":7170,"Ġtrade":7171,"Ġspotless":7172,"Ġplane":7173,"Ġmakeup":7174,"Ġgrew":7175,"berg":7176,"Ġreviewer":7177,"Ġsweethe":7178,"Ġslowly":7179,"onsense":7180,"brunch":7181,"Ġconsult":7182,"Ġgladly":7183,"Ġsuggestion":7184,"Ġpicnic":7185,"portion":7186,"ambiance":7187,"worker":7188,"Ġbenef":7189,"Ġtowel":7190,"Ġfajita":7191,"Ġconditioning":7192,"Ġpollo":7193,"Ġmelting":7194,"Ġcompetition":7195,"Ġcigars":7196,"Ġmidnight":7197,"personally":7198,"enguin":7199,"Ġcarrot":7200,"Ġbarista":7201,"eggs":7202,"Ġclaimed":7203,"Ġcoworker":7204,"Ġsharing":7205,"Ġcroissant":7206,"drove":7207,"Ġreputation":7208,"Ġpillows":7209,"certainly":7210,"Ġsweetheart":7211,"cashi":7212,"das":7213,"defin":7214,"french":7215,"iri":7216,"knowled":7217,"san":7218,"via":7219,"war":7220,"yan":7221,"thought":7222,"through":7223,"Ġahi":7224,"Ġwand":7225,"Ġfif":7226,"Ġbass":7227,"Ġtj":7228,"Ġtint":7229,"Ġtear":7230,"Ġpitch":7231,"Ġhue":7232,"orant":7233,"Ġnut":7234,"Ġlap":7235,"Ġleng":7236,"Ġlisa":7237,"Ġlanes":7238,"Ġreach":7239,"otive":7240,"icated":7241,"Ġitaly":7242,"meal":7243,"entially":7244,"eling":7245,"idence":7246,"Ġatm":7247,"Ġamy":7248,"Ġryan":7249,"Ġkn":7250,"Ġcomic":7251,"atement":7252,"onda":7253,"Ġpeak":7254,"Ġric":7255,"Ġconvince":7256,"Ġoverwhelmed":7257,"Ġfeature":7258,"Ġcrav":7259,"Ġhappier":7260,"igiri":7261,"Ġcaramel":7262,"foods":7263,"Ġbuilt":7264,"Ġplans":7265,"Ġsteph":7266,"Ġmenudo":7267,"apel":7268,"Ġadore":7269,"Ġfinds":7270,"Ġpalace":7271,"oha":7272,"Ġblown":7273,"Ġcrowds":7274,"Ġcali":7275,"Ġtrusted":7276,"buff":7277,"Ġcorrected":7278,"Ġdiscounted":7279,"Ġgardens":7280,"Ġselling":7281,"Ġspeaks":7282,"Ġupdating":7283,"Ġlegend":7284,"Ġsunny":7285,"Ġcommunicate":7286,"Ġdescribed":7287,"ificate":7288,"Ġpushed":7289,"hotel":7290,"Ġtheaters":7291,"Ġbalanced":7292,"joe":7293,"Ġashamed":7294,"Ġsurrounding":7295,"Ġunderstatement":7296,"ouston":7297,"Ġmartinis":7298,"Ġskimpy":7299,"Ġlaundry":7300,"Ġbouquet":7301,"Ġoregano":7302,"Ġduty":7303,"Ġpenne":7304,"Ġcravings":7305,"athetic":7306,"aja":7307,"bro":7308,"bacon":7309,"cor":7310,"consider":7311,"hor":7312,"hate":7313,"ras":7314,"sign":7315,"vada":7316,"Ġflo":7317,"Ġbaja":7318,"Ġtacky":7319,"Ġpenguin":7320,"Ġcand":7321,"Ġhouses":7322,"issa":7323,"Ġthus":7324,"Ġsodas":7325,"Ġrd":7326,"Ġrye":7327,"Ġliberty":7328,"Ġdelux":7329,"Ġvw":7330,"sell":7331,"Ġcoat":7332,"Ġuses":7333,"Ġlocked":7334,"Ġcleanest":7335,"Ġrid":7336,"Ġtruth":7337,"olved":7338,"Ġtele":7339,"Ġhusbands":7340,"cier":7341,"Ġtalent":7342,"Ġarriving":7343,"Ġbuffets":7344,"Ġstickers":7345,"Ġinvolved":7346,"pork":7347,"Ġremove":7348,"Ġrefunded":7349,"Ġmanicures":7350,"Ġtourist":7351,"crab":7352,"Ġmeds":7353,"Ġadvertise":7354,"Ġregarding":7355,"Ġwheel":7356,"Ġbarbershop":7357,"Ġunderstood":7358,"Ġautomotive":7359,"appetizing":7360,"Ġdragon":7361,"tacos":7362,"Ġgrowing":7363,"Ġfondue":7364,"Ġroutine":7365,"Ġswimming":7366,"Ġceiling":7367,"Ġslimy":7368,"Ġcertificate":7369,"Ġexchange":7370,"Ġeuropean":7371,"Ġlifetime":7372,"Ġthrift":7373,"Ġimmaculate":7374,"Ġdeluxe":7375,"bag":7376,"ges":7377,"iel":7378,"mal":7379,"nel":7380,"spe":7381,"wed":7382,"ths":7383,"ergetic":7384,"Ġsizzling":7385,"Ġgm":7386,"Ġgenius":7387,"Ġmoon":7388,"Ġnuts":7389,"Ġnigiri":7390,"Ġthom":7391,"itos":7392,"Ġresearch":7393,"Ġstadium":7394,"aya":7395,"meh":7396,"mex":7397,"asto":7398,"usas":7399,"ros":7400,"comend":7401,"Ġrule":7402,"Ġracist":7403,"Ġsex":7404,"Ġoutlet":7405,"Ġnoda":7406,"Ġquar":7407,"amble":7408,"Ġenergetic":7409,"deal":7410,"Ġunappetizing":7411,"igner":7412,"Ġbrands":7413,"Ġflag":7414,"Ġterms":7415,"Ġporter":7416,"thankfully":7417,"Ġtries":7418,"safe":7419,"Ġiceberg":7420,"Ġshowing":7421,"cia":7422,"Ġvaried":7423,"Ġhousekeeping":7424,"Ġgrille":7425,"special":7426,"Ġpolitely":7427,"Ġmacay":7428,"Ġexplaining":7429,"Ġignorant":7430,"Ġsausages":7431,"Ġcuz":7432,"kyo":7433,"Ġsummerlin":7434,"idential":7435,"Ġurine":7436,"Ġtapas":7437,"Ġedge":7438,"Ġedamame":7439,"Ġbattered":7440,"Ġembarrassing":7441,"Ġquesadillas":7442,"Ġshadyside":7443,"anchise":7444,"Ġwearing":7445,"Ġurgency":7446,"Ġsearching":7447,"Ġphotograp":7448,"Ġclams":7449,"lectable":7450,"Ġconnection":7451,"Ġrainbow":7452,"Ġappalling":7453,"Ġexaggerating":7454,"Ġtostada":7455,"Ġinsulting":7456,"Ġvalentine":7457,"Ġjessica":7458,"Ġappliances":7459,"Ġbrowse":7460,"Ġpregnant":7461,"Ġodor":7462,"Ġrustic":7463,"Ġchallenge":7464,"cra":7465,"gage":7466,"gressive":7467,"ila":7468,"mice":7469,"nis":7470,"obs":7471,"thai":7472,"Ġfile":7473,"Ġfalls":7474,"Ġfudge":7475,"Ġos":7476,"Ġmint":7477,"oul":7478,"Ġdu":7479,"Ġled":7480,"Ġling":7481,"Ġtots":7482,"Ġreli":7483,"Ġretro":7484,"iculous":7485,"ali":7486,"Ġstained":7487,"Ġstumbled":7488,"eties":7489,"Ġchapel":7490,"ffany":7491,"adam":7492,"Ġfridge":7493,"Ġjac":7494,"Ġjames":7495,"Ġseared":7496,"Ġbackground":7497,"Ġcaused":7498,"typical":7499,"Ġfranchise":7500,"istro":7501,"Ġpear":7502,"Ġcones":7503,"ifer":7504,"Ġminor":7505,"Ġcarries":7506,"Ġjoes":7507,"Ġsheets":7508,"cky":7509,"Ġopt":7510,"Ġsteer":7511,"Ġherbs":7512,"working":7513,"Ġtrim":7514,"arts":7515,"Ġdeck":7516,"Ġsweets":7517,"Ġscary":7518,"Ġvarieties":7519,"getting":7520,"otta":7521,"otti":7522,"Ġartwork":7523,"Ġspray":7524,"iliar":7525,"Ġremain":7526,"Ġconveniently":7527,"Ġmeticulous":7528,"Ġlux":7529,"Ġyounger":7530,"Ġtrashy":7531,"Ġbabies":7532,"crust":7533,"Ġshitty":7534,"Ġpreviously":7535,"Ġcheated":7536,"Ġboarding":7537,"major":7538,"phoenix":7539,"based":7540,"Ġassured":7541,"Ġcurrently":7542,"Ġdirectly":7543,"ennifer":7544,"meanwhile":7545,"Ġarcade":7546,"Ġfortune":7547,"Ġmatthew":7548,"Ġmichelle":7549,"Ġapproximately":7550,"Ġsignificantly":7551,"Ġblonde":7552,"sunday":7553,"Ġricotta":7554,"micelli":7555,"15":7556,"bbq":7557,"fill":7558,"girl":7559,"jess":7560,"might":7561,"michael":7562,"put":7563,"pberry":7564,"sent":7565,"shi":7566,"tast":7567,"year":7568,"relax":7569,"Ġbent":7570,"Ġbistro":7571,"Ġtab":7572,"Ġcross":7573,"atient":7574,"Ġhood":7575,"Ġgals":7576,"Ġmater":7577,"isions":7578,"rich":7579,"stery":7580,"utter":7581,"pper":7582,"Ġshaw":7583,"Ġshopp":7584,"Ġsav":7585,"iza":7586,"heard":7587,"iece":7588,"Ġaware":7589,"Ġdelectable":7590,"Ġbarrel":7591,"Ġbreaking":7592,"eep":7593,"Ġtwenty":7594,"achel":7595,"Ġmoj":7596,"Ġtasteful":7597,"Ġswear":7598,"Ġmarked":7599,"Ġleak":7600,"liked":7601,"bye":7602,"Ġaccompan":7603,"garlic":7604,"Ġfixing":7605,"ginally":7606,"cozy":7607,"spa":7608,"Ġcommer":7609,"Ġpassable":7610,"Ġsalesperson":7611,"trad":7612,"Ġdivey":7613,"Ġrequired":7614,"ometown":7615,"Ġheaded":7616,"Ġoriginally":7617,"velous":7618,"Ġbrownie":7619,"Ġfilter":7620,"Ġgelato":7621,"Ġbones":7622,"Ġfamiliar":7623,"Ġgroomed":7624,"Ġdescription":7625,"Ġlearning":7626,"Ġdanny":7627,"Ġlatest":7628,"Ġyelled":7629,"Ġcompanion":7630,"Ġprinted":7631,"ifferent":7632,"Ġexpertise":7633,"Ġtrails":7634,"decided":7635,"Ġappalled":7636,"Ġjeans":7637,"Ġrecipe":7638,"Ġrecipes":7639,"Ġlocker":7640,"Ġolives":7641,"Ġovercharged":7642,"Ġsorely":7643,"pancakes":7644,"Ġshawarma":7645,"cindy":7646,"mus":7647,"mil":7648,"nif":7649,"pad":7650,"wasted":7651,"yon":7652,"zo":7653,"Ġaction":7654,"Ġsens":7655,"Ġboston":7656,"Ġtart":7657,"aside":7658,"Ġpage":7659,"Ġandy":7660,"Ġol":7661,"Ġdil":7662,"Ġlulu":7663,"rier":7664,"utions":7665,"Ġstage":7666,"Ġstol":7667,"umpt":7668,"Ġloan":7669,"Ġloaf":7670,"chec":7671,"Ġworried":7672,"Ġshack":7673,"Ġshopped":7674,"Ġshoot":7675,"Ġtile":7676,"Ġallerg":7677,"azz":7678,"lost":7679,"izon":7680,"health":7681,"ams":7682,"ointed":7683,"Ġpee":7684,"Ġeater":7685,"Ġcanyon":7686,"note":7687,"Ġflaky":7688,"cap":7689,"Ġrob":7690,"Ġross":7691,"Ġattached":7692,"doctor":7693,"Ġcareless":7694,"Ġherb":7695,"ggage":7696,"ggies":7697,"Ġincre":7698,"Ġpaste":7699,"pros":7700,"Ġwatering":7701,"Ġending":7702,"Ġbloom":7703,"Ġpackaged":7704,"extra":7705,"Ġcrusty":7706,"Ġaddressed":7707,"Ġwashes":7708,"pleasantly":7709,"Ġprovider":7710,"Ġshortly":7711,"Ġspeaking":7712,"Ġsaturdays":7713,"Ġpainted":7714,"Ġdentistry":7715,"Ġheading":7716,"Ġluggage":7717,"Ġentertained":7718,"Ġsquid":7719,"Ġgrandma":7720,"Ġstatement":7721,"Ġattendants":7722,"Ġpock":7723,"Ġstrawberries":7724,"Ġhuman":7725,"Ġmedication":7726,"Ġjohns":7727,"Ġpetsmart":7728,"desert":7729,"Ġupgraded":7730,"Ġexplore":7731,"Ġmidas":7732,"Ġvermicelli":7733,"Ġdefinition":7734,"bathroom":7735,"Ġmaria":7736,"Ġdusty":7737,"Ġbulk":7738,"Ġcobbler":7739,"drive":7740,"Ġautomat":7741,"Ġtherapist":7742,"Ġexecuted":7743,"Ġgumbo":7744,"Ġcontainer":7745,"Ġinches":7746,"Ġresidents":7747,"Ġpapa":7748,"sounds":7749,"crispy":7750,"experience":7751,"warning":7752,"Ġstephanie":7753,"Ġstolen":7754,"umptious":7755,"host":7756,"kim":7757,"lie":7758,"lousy":7759,"ober":7760,"pet":7761,"uage":7762,"want":7763,"yi":7764,"yard":7765,"Ġcell":7766,"Ġpunch":7767,"Ġmt":7768,"Ġlang":7769,"Ġreaction":7770,"Ġinqu":7771,"Ġfork":7772,"Ġfoodie":7773,"Ġyrs":7774,"Ġantip":7775,"Ġjazz":7776,"Ġship":7777,"Ġordeal":7778,"Ġkoh":7779,"heaven":7780,"hello":7781,"Ġquiche":7782,"sey":7783,"ryan":7784,"Ġtools":7785,"Ġsomebody":7786,"Ġheather":7787,"Ġoffensive":7788,"Ġmanage":7789,"Ġcouldnt":7790,"Ġlunchtime":7791,"Ġroaches":7792,"Ġshells":7793,"aren":7794,"Ġimpatient":7795,"Ġspotty":7796,"apointed":7797,"Ġacoust":7798,"Ġdesigner":7799,"Ġpersonnel":7800,"anged":7801,"Ġmarried":7802,"Ġmarginal":7803,"Ġoffices":7804,"Ġscience":7805,"Ġacts":7806,"Ġfinance":7807,"Ġstylish":7808,"Ġgems":7809,"Ġblvd":7810,"browns":7811,"Ġgrossed":7812,"oker":7813,"Ġcurly":7814,"granted":7815,"Ġcloset":7816,"Ġstreets":7817,"Ġmemory":7818,"Ġreserved":7819,"Ġhorse":7820,"Ġfrost":7821,"Ġbride":7822,"dden":7823,"irtually":7824,"Ġmajority":7825,"Ġlaughable":7826,"Ġharsh":7827,"whoever":7828,"Ġchampagne":7829,"markable":7830,"Ġproceed":7831,"annoy":7832,"Ġguaranteed":7833,"Ġdenied":7834,"Ġbaseball":7835,"Ġpupusas":7836,"Ġconfirmation":7837,"Ġfreezing":7838,"Ġassuming":7839,"Ġremotely":7840,"Ġdreadful":7841,"Ġdissapointed":7842,"Ġcactus":7843,"Ġlanguage":7844,"Ġantipasto":7845,"bill":7846,"bud":7847,"bird":7848,"cream":7849,"fo":7850,"gas":7851,"habi":7852,"pose":7853,"yelp":7854,"Ġaj":7855,"Ġske":7856,"Ġscale":7857,"Ġted":7858,"Ġtsa":7859,"aspberry":7860,"Ġhometown":7861,"Ġobs":7862,"Ġgates":7863,"Ġmmm":7864,"Ġdull":7865,"iso":7866,"Ġtokyo":7867,"icent":7868,"arc":7869,"arre":7870,"Ġinj":7871,"adia":7872,"Ġjose":7873,"Ġnevada":7874,"Ġshoo":7875,"Ġshane":7876,"rese":7877,"Ġraspberry":7878,"quiet":7879,"Ġspare":7880,"osis":7881,"Ġoutcome":7882,"Ġvirtually":7883,"Ġdeliciously":7884,"abby":7885,"Ġpretentious":7886,"Ġoverbear":7887,"nology":7888,"Ġcomplic":7889,"Ġnewly":7890,"Ġtrivia":7891,"Ġincident":7892,"Ġbiggie":7893,"Ġokra":7894,"box":7895,"amazingly":7896,"Ġwok":7897,"avis":7898,"Ġcooler":7899,"burg":7900,"raid":7901,"rather":7902,"Ġeggrolls":7903,"Ġdryer":7904,"Ġfreeway":7905,"Ġopening":7906,"Ġfillet":7907,"Ġwished":7908,"Ġsett":7909,"Ġappointed":7910,"Ġcontinental":7911,"Ġprescriptions":7912,"Ġpresidential":7913,"Ġtechnology":7914,"Ġdamaged":7915,"tony":7916,"arah":7917,"Ġwondering":7918,"Ġprocessed":7919,"caring":7920,"Ġheavenly":7921,"Ġmicro":7922,"Ġconstant":7923,"Ġfails":7924,"Ġteacher":7925,"market":7926,"Ġtamale":7927,"Ġrenovation":7928,"Ġtanning":7929,"Ġcanceled":7930,"hardly":7931,"Ġvacuumed":7932,"Ġirritating":7933,"Ġvoicemail":7934,"Ġresolved":7935,"Ġcroissants":7936,"onsiderate":7937,"Ġbirds":7938,"Ġfreezer":7939,"Ġradio":7940,"Ġinteractive":7941,"Ġchiropractic":7942,"Ġjalapeno":7943,"Ġaugust":7944,"Ġtangy":7945,"lestone":7946,"Ġmasala":7947,"Ġofficially":7948,"Ġpurpose":7949,"Ġspirit":7950,"Ġcombos":7951,"Ġpremium":7952,"sanitary":7953,"nificent":7954,"healthy":7955,"habib":7956,"Ġobsess":7957,"Ġoverbearing":7958,"Ġcomplicated":7959,"20":7960,"dish":7961,"fety":7962,"lisa":7963,"nor":7964,"obe":7965,"ruin":7966,"Ġapt":7967,"rece":7968,"return":7969,"Ġbals":7970,"Ġbtw":7971,"Ġpressed":7972,"Ġpoker":7973,"Ġcone":7974,"Ġhonda":7975,"Ġgla":7976,"Ġgee":7977,"Ġgather":7978,"Ġmoo":7979,"Ġmal":7980,"Ġnerv":7981,"onation":7982,"Ġlens":7983,"Ġthous":7984,"ano":7985,"urable":7986,"umbo":7987,"Ġchem":7988,"Ġloss":7989,"Ġalignment":7990,"greatest":7991,"Ġneg":7992,"Ġtipped":7993,"Ġrandy":7994,"Ġbutton":7995,"ersey":7996,"Ġkay":7997,"Ġdissatisfied":7998,"Ġugh":7999,"ilty":8000,"amic":8001,"Ġusa":8002,"outd":8003,"Ġwaits":8004,"Ġconcess":8005,"Ġdept":8006,"Ġfeast":8007,"agers":8008,"Ġarrow":8009,"Ġbull":8010,"Ġpleasurable":8011,"Ġexpanded":8012,"Ġinconsiderate":8013,"Ġdescent":8014,"Ġreflect":8015,"Ġbitch":8016,"Ġlets":8017,"Ġbasics":8018,"Ġsmelling":8019,"gogi":8020,"Ġarrives":8021,"Ġindifferent":8022,"Ġestim":8023,"ummed":8024,"Ġgreets":8025,"spin":8026,"Ġpresence":8027,"Ġsonor":8028,"Ġsprings":8029,"uffle":8030,"attes":8031,"Ġdelighted":8032,"Ġcollard":8033,"Ġrocking":8034,"Ġhostesses":8035,"ampoo":8036,"trying":8037,"Ġmoderately":8038,"steaks":8039,"laya":8040,"Ġscrumptious":8041,"Ġpanang":8042,"Ġroadhouse":8043,"Ġcompetit":8044,"Ġchev":8045,"Ġhashbrowns":8046,"Ġmacaroons":8047,"Ġattempted":8048,"Ġcracked":8049,"Ġcommented":8050,"Ġoyster":8051,"Ġmillion":8052,"Ġaddicting":8053,"Ġveterinary":8054,"Ġmiracle":8055,"Ġarcadia":8056,"Ġsubstitute":8057,"Ġapproachable":8058,"Ġdiagnosis":8059,"Ġdemand":8060,"Ġborderline":8061,"started":8062,"Ġessentially":8063,"Ġbizarre":8064,"Ġfeatures":8065,"Ġtransferred":8066,"Ġpinch":8067,"Ġbalsamic":8068,"Ġchemical":8069,"++":8070,"aid":8071,"bees":8072,"cal":8073,"fraid":8074,"hand":8075,"ju":8076,"matt":8077,"pap":8078,"rors":8079,"say":8080,"tam":8081,"tucc":8082,"yesterday":8083,"thin":8084,"Ġawe":8085,"Ġafraid":8086,"Ġfuss":8087,"Ġfuel":8088,"Ġbc":8089,"Ġtro":8090,"Ġtong":8091,"asmine":8092,"Ġpint":8093,"Ġpurse":8094,"oosing":8095,"orary":8096,"Ġnom":8097,"Ġlattes":8098,"Ġstressed":8099,"entil":8100,"urge":8101,"urry":8102,"irrel":8103,"Ġnoted":8104,"kevin":8105,"until":8106,"ections":8107,"Ġwhipped":8108,"Ġjerry":8109,"Ġjosh":8110,"ulie":8111,"perfection":8112,"Ġshall":8113,"Ġshampoo":8114,"Ġspecially":8115,"Ġvist":8116,"ilia":8117,"above":8118,"abilia":8119,"Ġriding":8120,"inex":8121,"Ġunlimited":8122,"ague":8123,"Ġguilty":8124,"igent":8125,"Ġjoking":8126,"Ġtray":8127,"ueb":8128,"Ġsupermarket":8129,"Ġattr":8130,"Ġteeter":8131,"Ġgrown":8132,"Ġgrumpy":8133,"Ġneeding":8134,"Ġreturns":8135,"remember":8136,"forward":8137,"standard":8138,"Ġreceiving":8139,"Ġcrepe":8140,"Ġsooner":8141,"Ġpays":8142,"portation":8143,"Ġstrugg":8144,"Ġrace":8145,"Ġraise":8146,"Ġavoiding":8147,"buy":8148,"Ġcraig":8149,"Ġhopefully":8150,"Ġrushing":8151,"Ġinvest":8152,"Ġpurchases":8153,"Ġomelettes":8154,"Ġassisted":8155,"Ġjeweler":8156,"Ġconversations":8157,"Ġhawaii":8158,"waitresses":8159,"sales":8160,"Ġmagnificent":8161,"Ġkilled":8162,"Ġtests":8163,"Ġresponsible":8164,"Ġcatered":8165,"Ġdisplays":8166,"Ġcracker":8167,"Ġaccepted":8168,"Ġfeedback":8169,"Ġmarinated":8170,"Ġdegree":8171,"Ġratio":8172,"Ġvolume":8173,"Ġresolve":8174,"Ġbreathtaking":8175,"Ġfocused":8176,"taco":8177,"Ġoctober":8178,"Ġelectric":8179,"Ġjambalaya":8180,"Ġunremarkable":8181,"Ġknocked":8182,"Ġmemorabilia":8183,"margaritas":8184,"Ġnostalgic":8185,"Ġacoustics":8186,"arcastic":8187,"tuccine":8188,"Ġtongue":8189,"Ġvista":8190,"away":8191,"ares":8192,"jason":8193,"pow":8194,"pass":8195,"pol":8196,"pensive":8197,"rays":8198,"wide":8199,"western":8200,"them":8201,"Ġfitting":8202,"Ġbust":8203,"Ġbout":8204,"Ġbummed":8205,"Ġpile":8206,"Ġhd":8207,"Ġhitting":8208,"Ġhired":8209,"Ġgamb":8210,"Ġdun":8211,"Ġlin":8212,"vet":8213,"Ġreward":8214,"Ġhallow":8215,"Ġplaza":8216,"Ġonto":8217,"etly":8218,"ette":8219,"asters":8220,"Ġchoosing":8221,"adent":8222,"chool":8223,"chuan":8224,"Ġanti":8225,"Ġjar":8226,"Ġsoaked":8227,"Ġnello":8228,"Ġrail":8229,"quil":8230,"Ġcomics":8231,"Ġdelic":8232,"Ġnope":8233,"Ġpret":8234,"Ġthemed":8235,"Ġconvent":8236,"Ġoverpow":8237,"Ġfebr":8238,"Ġunits":8239,"igantic":8240,"Ġextended":8241,"beans":8242,"Ġtee":8243,"eph":8244,"Ġdoesnt":8245,"Ġkindly":8246,"Ġhandful":8247,"Ġexpectation":8248,"Ġefficiently":8249,"Ġbills":8250,"garbage":8251,"Ġ15":8252,"Ġconfidence":8253,"Ġsprint":8254,"mony":8255,"Ġtaqu":8256,"Ġmeaning":8257,"Ġbrie":8258,"Ġsquirrel":8259,"Ġholding":8260,"Ġreferring":8261,"Ġhurts":8262,"Ġgirlfriends":8263,"Ġmelts":8264,"Ġtransportation":8265,"Ġsplurge":8266,"Ġemailed":8267,"scott":8268,"zechuan":8269,"Ġpowder":8270,"Ġhipster":8271,"Ġblows":8272,"Ġdancers":8273,"Ġbulgogi":8274,"Ġeducated":8275,"Ġscreens":8276,"Ġstrikes":8277,"Ġconnect":8278,"Ġfettuccine":8279,"Ġrepeatedly":8280,"Ġmilkshake":8281,"twice":8282,"Ġpitiful":8283,"Ġpepsi":8284,"Ġpiercing":8285,"annah":8286,"Ġcrafts":8287,"Ġcompensation":8288,"strongly":8289,"crowded":8290,"Ġpersian":8291,"cashier":8292,"Ġtears":8293,"Ġknife":8294,"Ġconvinced":8295,"horri":8296,"Ġsexy":8297,"Ġbento":8298,"ruined":8299,"inexpensive":8300,"Ġboutique":8301,"Ġgambling":8302,"Ġdunno":8303,"Ġhalloween":8304,"Ġconvention":8305,"Ġfebruary":8306,"cer":8307,"count":8308,"fil":8309,"further":8310,"hara":8311,"know":8312,"kka":8313,"mom":8314,"mother":8315,"sides":8316,"wan":8317,"were":8318,"wonder":8319,"xistent":8320,"Ġaaa":8321,"Ġwit":8322,"Ġsarcastic":8323,"rea":8324,"inct":8325,"Ġbilt":8326,"Ġboss":8327,"Ġbrilliant":8328,"Ġpitas":8329,"atric":8330,"Ġhun":8331,"Ġdying":8332,"isco":8333,"Ġlying":8334,"iti":8335,"ito":8336,"Ġecon":8337,"aron":8338,"eled":8339,"estyle":8340,"robert":8341,"Ġjung":8342,"Ġfriendlier":8343,"Ġsafety":8344,"ighty":8345,"tery":8346,"Ġtikka":8347,"Ġgosh":8348,"Ġgetaway":8349,"Ġabund":8350,"seating":8351,"Ġpeeling":8352,"Ġoverlooked":8353,"Ġunsanitary":8354,"Ġcomped":8355,"Ġphones":8356,"Ġarby":8357,"Ġcarte":8358,"irsty":8359,"uren":8360,"Ġtepp":8361,"Ġboat":8362,"Ġsteel":8363,"Ġsteep":8364,"apore":8365,"anyhow":8366,"forget":8367,"bob":8368,"Ġdecadent":8369,"Ġcashew":8370,"sub":8371,"Ġpointed":8372,"Ġbrothers":8373,"Ġlowes":8374,"Ġraved":8375,"Ġplayer":8376,"conven":8377,"Ġestablishments":8378,"expect":8379,"Ġadvisor":8380,"Ġtalkative":8381,"Ġignoring":8382,"Ġnonetheless":8383,"Ġnonexistent":8384,"carne":8385,"Ġbrick":8386,"Ġcockro":8387,"Ġbench":8388,"Ġruben":8389,"Ġlistening":8390,"haha":8391,"Ġmedicine":8392,"Ġfireplace":8393,"Ġinternational":8394,"Ġdistinct":8395,"Ġpediatric":8396,"Ġjuices":8397,"Ġcowboy":8398,"Ġperformed":8399,"Ġverizon":8400,"Ġyellowtail":8401,"Ġskinny":8402,"Ġblowing":8403,"Ġtattoos":8404,"Ġinconvenient":8405,"Ġsurroundings":8406,"Ġsuccessful":8407,"Ġappeal":8408,"Ġeducational":8409,"Ġselected":8410,"meanor":8411,"Ġscared":8412,"ossom":8413,"Ġbooze":8414,"Ġencourage":8415,"Ġrudest":8416,"Ġsewage":8417,"Ġsnob":8418,"Ġtoddler":8419,"Ġsession":8420,"Ġprofessionally":8421,"Ġceremony":8422,"Ġcopy":8423,"bagels":8424,"Ġthomas":8425,"Ġinjury":8426,"Ġbiltmore":8427,"Ġeconom":8428,"Ġjungle":8429,"barely":8430,"due":8431,"eorge":8432,"fre":8433,"fit":8434,"giana":8435,"hit":8436,"hound":8437,"ibility":8438,"jack":8439,"jang":8440,"jerry":8441,"ker":8442,"mat":8443,"nick":8444,"site":8445,"tons":8446,"wood":8447,"yay":8448,"thorough":8449,"think":8450,"erat":8451,"Ġware":8452,"Ġsnow":8453,"Ġsons":8454,"Ġicing":8455,"Ġbk":8456,"Ġgeorge":8457,"Ġmasters":8458,"Ġluna":8459,"anket":8460,"ribs":8461,"Ġreality":8462,"Ġstat":8463,"Ġstories":8464,"Ġinefficient":8465,"Ġbear":8466,"Ġchos":8467,"Ġchase":8468,"Ġchann":8469,"Ġexit":8470,"Ġsole":8471,"Ġsahara":8472,"Ġassh":8473,"quila":8474,"Ġorlean":8475,"Ġseam":8476,"Ġliar":8477,"Ġliars":8478,"geon":8479,"Ġvs":8480,"Ġability":8481,"Ġfrys":8482,"Ġdemeanor":8483,"teen":8484,"Ġguard":8485,"migiana":8486,"igon":8487,"Ġapparent":8488,"othered":8489,"Ġparmigiana":8490,"Ġroach":8491,"Ġteen":8492,"Ġneedless":8493,"Ġmoves":8494,"gerous":8495,"Ġblamed":8496,"Ġmarvelous":8497,"Ġprince":8498,"ances":8499,"supp":8500,"Ġtreating":8501,"Ġsurgeon":8502,"Ġflies":8503,"issan":8504,"Ġziti":8505,"Ġendless":8506,"Ġwarmer":8507,"gets":8508,"ashley":8509,"Ġblanket":8510,"Ġturning":8511,"Ġaccommodated":8512,"Ġwedge":8513,"Ġwalker":8514,"Ġcurries":8515,"Ġpasses":8516,"Ġcleared":8517,"Ġwarner":8518,"Ġearn":8519,"Ġplanned":8520,"Ġcounting":8521,"Ġautonation":8522,"Ġappropri":8523,"Ġapplebees":8524,"Ġhyatt":8525,"inyl":8526,"Ġurbana":8527,"otein":8528,"walking":8529,"crap":8530,"Ġwestin":8531,"Ġtennis":8532,"Ġcaprese":8533,"dining":8534,"Ġmagaz":8535,"seemed":8536,"Ġdangerous":8537,"Ġresponsibility":8538,"Ġmidwest":8539,"Ġadmission":8540,"soooooo":8541,"Ġacknowledgement":8542,"Ġbucket":8543,"Ġnicole":8544,"Ġinventive":8545,"Ġdirections":8546,"Ġmirror":8547,"homemade":8548,"Ġescape":8549,"Ġkabobs":8550,"Ġcamper":8551,"Ġcamera":8552,"Ġcigarettes":8553,"Ġhundreds":8554,"Ġhesit":8555,"seafood":8556,"Ġfritters":8557,"Ġdecember":8558,"Ġshelves":8559,"Ġquarter":8560,"Ġmacayo":8561,"alibut":8562,"Ġmatthews":8563,"Ġsavings":8564,"Ġcommercial":8565,"jangles":8566,"eraton":8567,"Ġwarehouse":8568,"Ġchosen":8569,"Ġorleans":8570,"Ġappropriately":8571,"awn":8572,"bus":8573,"bster":8574,"daughter":8575,"ek":8576,"eople":8577,"mr":8578,"mind":8579,"pd":8580,"purch":8581,"play":8582,"randy":8583,"tive":8584,"tique":8585,"Ġszechuan":8586,"Ġiphone":8587,"Ġfiled":8588,"Ġtall":8589,"Ġcast":8590,"Ġcul":8591,"atmeal":8592,"Ġhalibut":8593,"Ġgaming":8594,"Ġgigantic":8595,"Ġmunch":8596,"Ġmills":8597,"Ġmighty":8598,"Ġnature":8599,"Ġnonsense":8600,"esus":8601,"eding":8602,"Ġlentil":8603,"oma":8604,"Ġreverse":8605,"lazy":8606,"icing":8607,"along":8608,"Ġwipe":8609,"Ġford":8610,"Ġgreater":8611,"Ġyea":8612,"urous":8613,"umes":8614,"Ġalive":8615,"kelly":8616,"unte":8617,"roy":8618,"anti":8619,"Ġantique":8620,"Ġjumbo":8621,"Ġjersey":8622,"Ġshru":8623,"Ġsheraton":8624,"Ġspill":8625,"Ġbackyard":8626,"Ġsudden":8627,"andon":8628,"lobster":8629,"sele":8630,"Ġframing":8631,"venue":8632,"Ġupfront":8633,"abba":8634,"Ġdear":8635,"Ġunited":8636,"Ġunbear":8637,"Ġbarbe":8638,"Ġargue":8639,"Ġaroma":8640,"Ġperman":8641,"Ġjoin":8642,"except":8643,"Ġparked":8644,"Ġbrats":8645,"Ġsmothered":8646,"Ġplum":8647,"Ġdesire":8648,"Ġkee":8649,"Ġgreedy":8650,"Ġmole":8651,"impressed":8652,"Ġsweetness":8653,"Ġprotein":8654,"mostly":8655,"Ġscoop":8656,"espeople":8657,"Ġslower":8658,"Ġfairways":8659,"Ġmusty":8660,"Ġskins":8661,"Ġprodu":8662,"Ġblues":8663,"Ġslide":8664,"ancisco":8665,"Ġturnaround":8666,"Ġwatched":8667,"Ġstole":8668,"Ġchildhood":8669,"Ġnumbers":8670,"Ġpersonalized":8671,"Ġengagement":8672,"Ġwins":8673,"Ġsouthwestern":8674,"Ġlayer":8675,"Ġchewing":8676,"prime":8677,"Ġholds":8678,"Ġsupposedly":8679,"Ġsums":8680,"Ġmotor":8681,"Ġpreferred":8682,"Ġjacket":8683,"located":8684,"Ġdisrespected":8685,"Ġblocks":8686,"Ġadmitted":8687,"visiting":8688,"Ġroomy":8689,"Ġcheesesteaks":8690,"Ġliquid":8691,"Ġcobblestone":8692,"Ġeducation":8693,"flavorful":8694,"Ġgallery":8695,"Ġcapitol":8696,"Ġsupreme":8697,"Ġsincerely":8698,"Ġgalore":8699,"Ġchiropractor":8700,"Ġdelayed":8701,"Ġcrawfish":8702,"Ġchaotic":8703,"Ġjerky":8704,"Ġjukebox":8705,"Ġargued":8706,"knowledge":8707,"filling":8708,"music":8709,"received":8710,"Ġsonoran":8711,"Ġculinary":8712,"Ġshrugged":8713,"Ġspilled":8714,"Ġunbearable":8715,"Ġbarbeque":8716,"Ġpermanent":8717,"event":8718,"far":8719,"gal":8720,"honey":8721,"josh":8722,"las":8723,"lvet":8724,"nn":8725,"pain":8726,"sun":8727,"south":8728,"Ġalar":8729,"Ġwre":8730,"Ġsorts":8731,"Ġbbb":8732,"Ġtun":8733,"Ġtuc":8734,"Ġcy":8735,"Ġmap":8736,"eness":8737,"Ġneck":8738,"Ġnissan":8739,"anas":8740,"anberry":8741,"arse":8742,"utto":8743,"Ġhays":8744,"Ġbeach":8745,"aylor":8746,"Ġexotic":8747,"esta":8748,"Ġaloha":8749,"adill":8750,"cho":8751,"chili":8752,"christ":8753,"ules":8754,"Ġshabby":8755,"Ġbutcher":8756,"weed":8757,"Ġspok":8758,"Ġsparse":8759,"opus":8760,"Ġcabo":8761,"izing":8762,"Ġvinyl":8763,"Ġquint":8764,"outons":8765,"Ġmanuel":8766,"Ġcranberry":8767,"Ġcroutons":8768,"Ġworthwhile":8769,"Ġarm":8770,"Ġvelvet":8771,"lady":8772,"calamari":8773,"ipino":8774,"oles":8775,"Ġsmiled":8776,"Ġtequila":8777,"Ġgrape":8778,"Ġplumb":8779,"Ġsteam":8780,"Ġhero":8781,"neat":8782,"liberty":8783,"Ġhandmade":8784,"Ġreps":8785,"issue":8786,"ciutto":8787,"Ġvalued":8788,"nevertheless":8789,"Ġblossom":8790,"Ġpromises":8791,"shit":8792,"Ġholly":8793,"Ġhalfway":8794,"Ġbelong":8795,"Ġlowest":8796,"Ġwatches":8797,"Ġfacials":8798,"Ġportioned":8799,"Ġconfusion":8800,"Ġbehold":8801,"ilibert":8802,"Ġpainfully":8803,"Ġears":8804,"Ġdentists":8805,"Ġbirthdays":8806,"Ġtenderloin":8807,"Ġheads":8808,"Ġpics":8809,"Ġoutdoors":8810,"Ġsells":8811,"Ġinstaller":8812,"Ġmoderate":8813,"Ġdiego":8814,"Ġstraightforward":8815,"Ġremodeling":8816,"Ġpanini":8817,"close":8818,"Ġrangoons":8819,"Ġprinting":8820,"Ġrenovations":8821,"Ġaddictive":8822,"Ġdepending":8823,"Ġsmokers":8824,"Ġchunky":8825,"Ġsharp":8826,"appetizers":8827,"Ġadventurous":8828,"Ġdominos":8829,"Ġassumed":8830,"Ġjalapenos":8831,"Ġhomestyle":8832,"Ġelectron":8833,"Ġdevil":8834,"flower":8835,"Ġrudeness":8836,"Ġhesitation":8837,"Ġmimosas":8838,"smoking":8839,"served":8840,"frankly":8841,"maintenance":8842,"Ġcousin":8843,"Ġbenefit":8844,"Ġhuevos":8845,"Ġlength":8846,"Ġphotographer":8847,"milk":8848,"caping":8849,"Ġpocket":8850,"annoying":8851,"Ġobsessed":8852,"Ġalarm":8853,"Ġwreck":8854,"Ġtucson":8855,"adillac":8856,"Ġspoken":8857,"Ġplumbing":8858,"average":8859,"cont":8860,"hoo":8861,"ham":8862,"heck":8863,"kana":8864,"lc":8865,"rus":8866,"ration":8867,"tch":8868,"vice":8869,"thony":8870,"eric":8871,"eros":8872,"Ġslots":8873,"Ġfence":8874,"Ġfoul":8875,"inarian":8876,"Ġtum":8877,"Ġtina":8878,"asing":8879,"Ġpf":8880,"Ġped":8881,"Ġcri":8882,"Ġcott":8883,"Ġcreek":8884,"Ġhouston":8885,"Ġoatmeal":8886,"Ġmak":8887,"Ġmand":8888,"llos":8889,"Ġdense":8890,"Ġdcor":8891,"vern":8892,"rib":8893,"Ġev":8894,"str":8895,"stup":8896,"steph":8897,"arri":8898,"Ġyay":8899,"urger":8900,"ffees":8901,"roll":8902,"Ġwhim":8903,"Ġjennifer":8904,"Ġjasmine":8905,"Ġsocks":8906,"Ġsofa":8907,"Ġsakana":8908,"Ġrules":8909,"Ġsears":8910,"Ġbacked":8911,"osher":8912,"Ġallergy":8913,"icky":8914,"Ġjustin":8915,"Ġcode":8916,"Ġcoffees":8917,"aburger":8918,"istration":8919,"Ġheating":8920,"Ġunclean":8921,"Ġarch":8922,"existent":8923,"Ġclutter":8924,"Ġfunction":8925,"beit":8926,"Ġopens":8927,"Ġgray":8928,"Ġcarefully":8929,"together":8930,"friends":8931,"anyone":8932,"negative":8933,"Ġlasts":8934,"Ġsweat":8935,"impressive":8936,"Ġsurly":8937,"igned":8938,"Ġpickle":8939,"ordial":8940,"Ġlessons":8941,"Ġmusician":8942,"Ġcrusted":8943,"drink":8944,"Ġfinishing":8945,"Ġplays":8946,"Ġpassen":8947,"Ġstretch":8948,"Ġbookstore":8949,"frustr":8950,"Ġtavern":8951,"Ġconsideration":8952,"poorly":8953,"Ġremains":8954,"Ġcabin":8955,"within":8956,"Ġwinning":8957,"Ġheartbeat":8958,"Ġrancheros":8959,"Ġfilipino":8960,"Ġswiss":8961,"Ġbanfield":8962,"security":8963,"Ġsampled":8964,"Ġnacho":8965,"Ġregisters":8966,"nonetheless":8967,"paul":8968,"paper":8969,"Ġsams":8970,"Ġtuesdays":8971,"helped":8972,"Ġsleeping":8973,"Ġtaxes":8974,"Ġmatched":8975,"Ġstaples":8976,"charlotte":8977,"Ġprivacy":8978,"lucky":8979,"Ġvolunte":8980,"Ġhallway":8981,"blue":8982,"Ġexecution":8983,"welcoming":8984,"courteous":8985,"Ġacrylics":8986,"Ġexaggeration":8987,"washer":8988,"Ġgooey":8989,"Ġfurious":8990,"Ġslammed":8991,"Ġdemanded":8992,"Ġbrowsing":8993,"Ġpalm":8994,"Ġsporting":8995,"Ġronald":8996,"Ġreeked":8997,"Ġprosciutto":8998,"Ġlandscaping":8999,"definately":9000,"buffet":9001,"Ġcandles":9002,"Ġaccompanied":9003,"checked":9004,"Ġbloomfield":9005,"experienced":9006,"Ġarrowhead":9007,"knowledgeable":9008,"Ġtummy":9009,"stupid":9010,"Ġcluttered":9011,"bassy":9012,"cake":9013,"dress":9014,"dark":9015,"false":9016,"gl":9017,"gies":9018,"grilled":9019,"hen":9020,"ires":9021,"jeff":9022,"lind":9023,"miche":9024,"nty":9025,"pany":9026,"park":9027,"tim":9028,"tender":9029,"wif":9030,"erly":9031,"Ġille":9032,"Ġbat":9033,"Ġbare":9034,"Ġtissue":9035,"Ġpaired":9036,"Ġcordial":9037,"Ġhates":9038,"Ġdarts":9039,"Ġnine":9040,"onna":9041,"anical":9042,"vember":9043,"Ġeld":9044,"lee":9045,"Ġrear":9046,"Ġrenew":9047,"arrow":9048,"otanical":9049,"Ġstir":9050,"Ġstared":9051,"Ġstairs":9052,"Ġgoodyear":9053,"gher":9054,"etwork":9055,"Ġchuck":9056,"Ġalbeit":9057,"chef":9058,"unct":9059,"Ġamanda":9060,"Ġseed":9061,"Ġspit":9062,"aka":9063,"Ġkong":9064,"Ġnovember":9065,"mpi":9066,"Ġcave":9067,"Ġaggressive":9068,"whole":9069,"Ġensure":9070,"Ġheated":9071,"Ġaward":9072,"Ġdeath":9073,"tell":9074,"Ġuncle":9075,"Ġunreal":9076,"Ġguit":9077,"Ġthanked":9078,"Ġcarl":9079,"Ġsalespeople":9080,"Ġroses":9081,"Ġpleasing":9082,"Ġbobbie":9083,"Ġbojangles":9084,"Ġsteaming":9085,"Ġcharred":9086,"Ġmothers":9087,"acted":9088,"Ġshoulder":9089,"Ġentry":9090,"Ġdecisions":9091,"Ġcasinos":9092,"Ġpath":9093,"Ġsecure":9094,"prod":9095,"Ġtriple":9096,"Ġaccompany":9097,"Ġbilled":9098,"Ġindia":9099,"Ġwasher":9100,"cox":9101,"Ġsignage":9102,"Ġanna":9103,"nessed":9104,"Ġcalming":9105,"Ġembassy":9106,"compet":9107,"Ġhostile":9108,"Ġdropping":9109,"Ġrequire":9110,"Ġrequires":9111,"Ġtorta":9112,"Ġhoped":9113,"Ġboyfriends":9114,"Ġsingapore":9115,"funny":9116,"biggest":9117,"Ġmilitary":9118,"fyi":9119,"attle":9120,"Ġrequesting":9121,"Ġeventually":9122,"Ġassigned":9123,"Ġcollections":9124,"Ġsouthside":9125,"believe":9126,"guy":9127,"Ġrecall":9128,"Ġreccomend":9129,"cano":9130,"Ġtowing":9131,"Ġalteration":9132,"Ġjewelers":9133,"walk":9134,"crazy":9135,"Ġbatteries":9136,"Ġdefensive":9137,"Ġcapable":9138,"Ġbrandon":9139,"slowest":9140,"Ġbleeding":9141,"Ġyorker":9142,"Ġbottomless":9143,"Ġkicks":9144,"Ġdaniel":9145,"stickers":9146,"Ġupgrades":9147,"Ġtaro":9148,"Ġmatches":9149,"Ġkimchi":9150,"Ġexistent":9151,"Ġchimichangas":9152,"Ġdestroy":9153,"Ġhallways":9154,"Ġfiesta":9155,"Ġcomparison":9156,"Ġfocus":9157,"Ġscampi":9158,"Ġsundaes":9159,"course":9160,"Ġtostadas":9161,"Ġinsulted":9162,"Ġoctopus":9163,"Ġencouraging":9164,"Ġlinda":9165,"Ġfritter":9166,"Ġgreyhound":9167,"Ġrecognize":9168,"Ġjerks":9169,"Ġmimosa":9170,"Ġhotdogs":9171,"Ġcounty":9172,"Ġblizzard":9173,"Ġhiring":9174,"Ġreschedule":9175,"Ġtelev":9176,"Ġdilworth":9177,"Ġsettled":9178,"Ġnervous":9179,"Ġstatus":9180,"Ġprincess":9181,"eventually":9182,"stephanie":9183,"Ġillegal":9184,"onnaise":9185,"Ġelderly":9186,"Ġdestroyed":9187,"aud":9188,"baked":9189,"cons":9190,"fac":9191,"gon":9192,"gle":9193,"iam":9194,"mings":9195,"mission":9196,"odd":9197,"post":9198,"plain":9199,"present":9200,"sit":9201,"sar":9202,"wind":9203,"wart":9204,"wtf":9205,"Ġich":9206,"Ġfilibert":9207,"Ġbian":9208,"Ġbits":9209,"Ġbotanical":9210,"asures":9211,"Ġcos":9212,"Ġcadillac":9213,"oori":9214,"ene":9215,"ori":9216,"Ġdq":9217,"ingredients":9218,"anadas":9219,"Ġtoward":9220,"omol":9221,"strom":9222,"Ġreached":9223,"lacing":9224,"eremy":9225,"alas":9226,"Ġinep":9227,"urbana":9228,"usive":9229,"ustin":9230,"idi":9231,"ested":9232,"Ġanthem":9233,"uled":9234,"Ġshine":9235,"Ġfaith":9236,"Ġken":9237,"Ġkal":9238,"Ġkudos":9239,"Ġpriceline":9240,"Ġnoble":9241,"andoori":9242,"Ġvictor":9243,"Ġdisinterested":9244,"Ġuber":9245,"Ġtherefore":9246,"Ġdeliciousness":9247,"Ġsomeplace":9248,"Ġyours":9249,"Ġpeas":9250,"Ġawsome":9251,"Ġmanger":9252,"Ġbree":9253,"ittany":9254,"ished":9255,"Ġjoey":9256,"Ġtrout":9257,"Ġapples":9258,"Ġbrle":9259,"Ġbrule":9260,"Ġflagged":9261,"Ġroy":9262,"Ġextras":9263,"Ġdownside":9264,"Ġquicker":9265,"Ġentre":9266,"arily":9267,"Ġdishwasher":9268,"Ġsatay":9269,"Ġdriven":9270,"Ġpatrick":9271,"Ġsweetest":9272,"Ġwoke":9273,"Ġleaking":9274,"Ġleasing":9275,"sucks":9276,"Ġnailed":9277,"Ġmayonnaise":9278,"Ġpolice":9279,"Ġpromot":9280,"Ġschwart":9281,"Ġdressings":9282,"Ġaccommodations":9283,"Ġsubstandard":9284,"Ġcontinu":9285,"Ġlightly":9286,"covery":9287,"lette":9288,"spring":9289,"Ġannual":9290,"Ġamounts":9291,"Ġrentals":9292,"Ġsinging":9293,"Ġexplains":9294,"anky":9295,"Ġfold":9296,"Ġinvited":9297,"Ġboxed":9298,"Ġwindshi":9299,"Ġforemost":9300,"Ġimpersonal":9301,"iscos":9302,"Ġcollect":9303,"guac":9304,"Ġpizzeria":9305,"Ġcontacts":9306,"Ġjewish":9307,"Ġbananas":9308,"Ġconditioner":9309,"Ġscramble":9310,"Ġsamosas":9311,"Ġupsetting":9312,"Ġrounded":9313,"salmon":9314,"Ġembarrassment":9315,"Ġkicked":9316,"desma":9317,"Ġarray":9318,"ichaels":9319,"Ġattempts":9320,"fairly":9321,"Ġregards":9322,"Ġtanks":9323,"Ġclaims":9324,"Ġveterinarian":9325,"casual":9326,"Ġhomeless":9327,"Ġaudi":9328,"Ġaudio":9329,"desserts":9330,"Ġcrafted":9331,"Ġnickel":9332,"Ġaisle":9333,"Ġaisles":9334,"Ġpamper":9335,"Ġtolerable":9336,"Ġconsultant":9337,"Ġluxury":9338,"tastes":9339,"hostess":9340,"Ġgeek":9341,"spinach":9342,"Ġtropical":9343,"Ġtaquitos":9344,"furthermore":9345,"Ġwitnessed":9346,"convenient":9347,"selection":9348,"Ġichiza":9349,"Ġinept":9350,"Ġbrulee":9351,"Ġschwartz":9352,"Ġwindshield":9353,"book":9354,"booked":9355,"cue":9356,"dou":9357,"ez":9358,"fine":9359,"hummus":9360,"iest":9361,"kat":9362,"mush":9363,"monday":9364,"nse":9365,"school":9366,"tort":9367,"ture":9368,"whe":9369,"wendy":9370,"Ġavenue":9371,"Ġsnot":9372,"Ġsits":9373,"rets":9374,"Ġberry":9375,"Ġtit":9376,"Ġtlc":9377,"Ġpgh":9378,"Ġpopped":9379,"Ġcoo":9380,"Ġcindy":9381,"Ġhh":9382,"Ġhoc":9383,"Ġhub":9384,"Ġhats":9385,"Ġhike":9386,"Ġhuh":9387,"Ġgay":9388,"orig":9389,"Ġnetwork":9390,"iskey":9391,"Ġlice":9392,"Ġligh":9393,"Ġlgo":9394,"itect":9395,"stances":9396,"lap":9397,"icies":9398,"Ġhamp":9399,"Ġstare":9400,"Ġstating":9401,"uming":9402,"acc":9403,"iration":9404,"ido":9405,"idia":9406,"charm":9407,"Ġmeasure":9408,"Ġantic":9409,"comm":9410,"Ġshown":9411,"reserv":9412,"Ġspic":9413,"Ġkool":9414,"Ġkosher":9415,"Ġcomfor":9416,"Ġoutta":9417,"Ġvin":9418,"Ġdiscovery":9419,"Ġfrancisco":9420,"Ġaggr":9421,"Ġhealing":9422,"tech":9423,"redient":9424,"agine":9425,"Ġcrown":9426,"Ġeateries":9427,"Ġdrank":9428,"Ġpercent":9429,"Ġtrap":9430,"imagine":9431,"Ġbye":9432,"Ġapply":9433,"Ġrobb":9434,"Ġflavoring":9435,"assuming":9436,"Ġdaycare":9437,"Ġbuzz":9438,"therefore":9439,"ipated":9440,"Ġexpand":9441,"Ġbreaks":9442,"word":9443,"Ġadam":9444,"anyaki":9445,"Ġseeking":9446,"Ġpatties":9447,"Ġmariscos":9448,"ava":9449,"avation":9450,"Ġcooling":9451,"Ġunderrated":9452,"Ġreplacing":9453,"Ġsecrets":9454,"Ġpricier":9455,"Ġavail":9456,"Ġstuffy":9457,"boring":9458,"Ġvalid":9459,"Ġpolicies":9460,"bravo":9461,"Ġdelivering":9462,"Ġingredient":9463,"Ġappreciation":9464,"Ġseaweed":9465,"conf":9466,"cony":9467,"Ġsmith":9468,"Ġhealthier":9469,"undido":9470,"Ġhella":9471,"ometrist":9472,"uini":9473,"Ġmixture":9474,"ambience":9475,"Ġrocky":9476,"Ġclassics":9477,"guys":9478,"given":9479,"Ġbridesma":9480,"Ġfrequenting":9481,"ierland":9482,"Ġupdates":9483,"Ġtraveler":9484,"Ġtowed":9485,"Ġforgetting":9486,"Ġtenants":9487,"Ġpolished":9488,"Ġhillstone":9489,"Ġcelebrated":9490,"Ġbleu":9491,"Ġimagined":9492,"Ġrichard":9493,"Ġcrackers":9494,"amaican":9495,"Ġexpertly":9496,"Ġalternatives":9497,"annon":9498,"generally":9499,"Ġghost":9500,"cumstances":9501,"Ġmiller":9502,"Ġbasement":9503,"Ġeyebrow":9504,"Ġethic":9505,"Ġstrict":9506,"Ġprocedures":9507,"Ġgallo":9508,"Ġracks":9509,"luv":9510,"Ġprecious":9511,"Ġadjustment":9512,"Ġdomino":9513,"Ġvalentines":9514,"Ġpiero":9515,"Ġexceeds":9516,"Ġfabrics":9517,"uccino":9518,"Ġcircumstances":9519,"picked":9520,"Ġfluke":9521,"Ġfestival":9522,"Ġhotdog":9523,"jimmy":9524,"Ġvendor":9525,"Ġpraise":9526,"Ġfifteen":9527,"Ġpitcher":9528,"Ġoptometrist":9529,"relaxed":9530,"Ġmojito":9531,"yikes":9532,"Ġkohl":9533,"Ġinvestment":9534,"purchased":9535,"Ġarchitect":9536,"Ġsnotty":9537,"Ġhockey":9538,"origin":9539,"Ġlicense":9540,"Ġlighter":9541,"Ġhampton":9542,"charming":9543,"Ġanticipated":9544,"Ġcomforter":9545,"Ġaggravation":9546,"Ġrobbed":9547,"Ġarchitecture":9548,"'m":9549,"bac":9550,"cant":9551,"cation":9552,"cab":9553,"ealing":9554,"gat":9555,"hh":9556,"hy":9557,"ik":9558,"kish":9559,"making":9560,"max":9561,"net":9562,"pte":9563,"pure":9564,"parent":9565,"rare":9566,"sitting":9567,"tre":9568,"takes":9569,"waff":9570,"thod":9571,"Ġave":9572,"Ġala":9573,"Ġado":9574,"Ġaunt":9575,"Ġsier":9576,"Ġbum":9577,"Ġtaylor":9578,"asis":9579,"Ġpiled":9580,"Ġcried":9581,"atos":9582,"Ġhat":9583,"Ġhong":9584,"Ġoj":9585,"Ġoasis":9586,"Ġgary":9587,"Ġmichaels":9588,"llanda":9589,"Ġdar":9590,"Ġdare":9591,"isan":9592,"onese":9593,"Ġly":9594,"itives":9595,"Ġeel":9596,"Ġemily":9597,"stale":9598,"icles":9599,"Ġstout":9600,"Ġstove":9601,"Ġinfection":9602,"Ġinexperienced":9603,"Ġbeg":9604,"Ġexcell":9605,"Ġmellow":9606,"Ġmeets":9607,"rofo":9608,"Ġjus":9609,"Ġshiny":9610,"Ġshipped":9611,"Ġruss":9612,"Ġsepte":9613,"Ġlies":9614,"Ġsuv":9615,"Ġallows":9616,"Ġkierland":9617,"Ġpriceless":9618,"Ġvast":9619,"Ġvouch":9620,"ourse":9621,"ourbon":9622,"ilis":9623,"ilation":9624,"amanda":9625,"outside":9626,"istle":9627,"appealing":9628,"Ġevenings":9629,"Ġoverha":9630,"Ġuncooked":9631,"Ġunreasonable":9632,"Ġuninterested":9633,"Ġunappealing":9634,"Ġbarnes":9635,"ishings":9636,"Ġcanal":9637,"Ġhappiness":9638,"Ġtrays":9639,"Ġbra":9640,"Ġrocked":9641,"Ġnewer":9642,"Ġbuca":9643,"olis":9644,"bean":9645,"Ġgristle":9646,"worked":9647,"apolo":9648,"Ġempanadas":9649,"ssive":9650,"Ġdipped":9651,"Ġgreg":9652,"Ġstaycation":9653,"nicely":9654,"Ġreviewed":9655,"Ġdrives":9656,"living":9657,"Ġhandic":9658,"problem":9659,"Ġairy":9660,"Ġprimary":9661,"eye":9662,"ordstrom":9663,"Ġshowroom":9664,"Ġcuticles":9665,"Ġletting":9666,"Ġexcessive":9667,"Ġwarmed":9668,"Ġpositives":9669,"Ġbroad":9670,"Ġpackages":9671,"brant":9672,"bruschetta":9673,"tiffany":9674,"Ġlowe":9675,"pleased":9676,"letcher":9677,"Ġconsumer":9678,"Ġconsignment":9679,"Ġhospitals":9680,"Ġcommission":9681,"Ġdonna":9682,"Ġavoided":9683,"Ġsprink":9684,"Ġremained":9685,"urses":9686,"Ġdoug":9687,"Ġclock":9688,"Ġconcourse":9689,"Ġspaces":9690,"Ġlayers":9691,"cargot":9692,"Ġrespectable":9693,"Ġsquad":9694,"Ġgrandmother":9695,"often":9696,"Ġedges":9697,"sati":9698,"temporary":9699,"Ġjohnson":9700,"Ġraviolis":9701,"Ġburning":9702,"Ġmoto":9703,"Ġbalcony":9704,"Ġwaxed":9705,"romat":9706,"classy":9707,"Ġflew":9708,"Ġvacuuming":9709,"Ġstressful":9710,"Ġtrailer":9711,"Ġvolcano":9712,"Ġtags":9713,"Ġoreo":9714,"Ġtherapy":9715,"lendid":9716,"watering":9717,"Ġroberto":9718,"Ġsqueeze":9719,"Ġgoogle":9720,"Ġreputable":9721,"Ġpapaya":9722,"Ġcouches":9723,"Ġmeantime":9724,"flowing":9725,"Ġrepresentative":9726,"Ġchaos":9727,"Ġcircle":9728,"Ġsuspect":9729,"Ġqualities":9730,"Ġsympathetic":9731,"smells":9732,"Ġsongs":9733,"Ġaccordingly":9734,"Ġtechnique":9735,"Ġvisible":9736,"jessica":9737,"Ġsensitive":9738,"Ġgathering":9739,"papillas":9740,"Ġaweful":9741,"Ġattraction":9742,"Ġpretend":9743,"Ġcockroach":9744,"Ġchannels":9745,"arrived":9746,"Ġguitar":9747,"presentation":9748,"gatoni":9749,"Ġsierra":9750,"llandaise":9751,"rofoam":9752,"Ġseptember":9753,"Ġvoucher":9754,"Ġoverhaul":9755,"dom":9756,"dive":9757,"eating":9758,"hold":9759,"iki":9760,"jen":9761,"james":9762,"lou":9763,"licky":9764,"mess":9765,"match":9766,"mashed":9767,"oza":9768,"pull":9769,"ugs":9770,"wont":9771,"ziki":9772,"Ġsilly":9773,"reless":9774,"Ġfusion":9775,"Ġfundido":9776,"Ġfletcher":9777,"Ġbj":9778,"Ġbait":9779,"Ġbake":9780,"Ġpig":9781,"Ġcass":9782,"ators":9783,"atziki":9784,"Ġhunt":9785,"Ġowe":9786,"enough":9787,"ora":9788,"orgon":9789,"Ġnose":9790,"Ġlord":9791,"Ġlane":9792,"vegan":9793,"veggie":9794,"veggies":9795,"leep":9796,"aled":9797,"Ġhaz":9798,"Ġstiff":9799,"Ġstones":9800,"Ġwireless":9801,"alle":9802,"Ġyr":9803,"Ġchipped":9804,"Ġchilis":9805,"Ġmystery":9806,"Ġalas":9807,"unprofessional":9808,"ppuccino":9809,"Ġwhiskey":9810,"Ġjulie":9811,"Ġjamaican":9812,"Ġasleep":9813,"Ġstaffing":9814,"Ġsplendid":9815,"Ġkale":9816,"logn":9817,"Ġcappuccino":9818,"Ġvenu":9819,"Ġjustify":9820,"Ġwouldnt":9821,"Ġstaring":9822,"Ġovers":9823,"Ġoverlooking":9824,"Ġoverflowing":9825,"Ġuni":9826,"Ġuncaring":9827,"Ġunwelcoming":9828,"Ġcrooked":9829,"Ġeaters":9830,"mix":9831,"Ġjokes":9832,"Ġbruce":9833,"Ġflaming":9834,"iane":9835,"Ġvisitor":9836,"Ġstepping":9837,"Ġrescue":9838,"Ġhispan":9839,"Ġpartial":9840,"Ġcoolest":9841,"Ġscum":9842,"Ġacting":9843,"Ġpotstickers":9844,"Ġstyrofoam":9845,"Ġcontent":9846,"Ġavis":9847,"Ġlarry":9848,"Ġcostumes":9849,"Ġletter":9850,"ationship":9851,"mmmmm":9852,"Ġbaggage":9853,"Ġskipped":9854,"Ġvibrant":9855,"Ġgarlicky":9856,"Ġbakeries":9857,"Ġlaser":9858,"Ġsupper":9859,"Ġhollandaise":9860,"prep":9861,"Ġlaura":9862,"Ġcesar":9863,"Ġraving":9864,"Ġgreeter":9865,"Ġartisan":9866,"Ġjuan":9867,"arkins":9868,"Ġcoloring":9869,"Ġpainting":9870,"Ġflooring":9871,"Ġequal":9872,"Ġclubs":9873,"Ġclubhouse":9874,"Ġdelightfully":9875,"Ġimported":9876,"Ġreclin":9877,"Ġrecieved":9878,"Ġposting":9879,"Ġtreasures":9880,"Ġturkish":9881,"Ġgrabbing":9882,"Ġcovering":9883,"Ġperfectionist":9884,"Ġfilm":9885,"Ġtourists":9886,"Ġurban":9887,"becca":9888,"Ġoperate":9889,"Ġrelationship":9890,"saturday":9891,"Ġpharmacist":9892,"Ġreceptionists":9893,"Ġquestioned":9894,"Ġsplash":9895,"Ġfirestone":9896,"diff":9897,"Ġultimately":9898,"Ġtesting":9899,"Ġinspect":9900,"Ġdefinetly":9901,"Ġcantonese":9902,"ethical":9903,"Ġdreams":9904,"Ġcompanions":9905,"Ġtailoring":9906,"Ġcarrabba":9907,"Ġimprovements":9908,"Ġyelper":9909,"lected":9910,"Ġhygienists":9911,"Ġsurrounded":9912,"Ġfloral":9913,"Ġmirrors":9914,"Ġdisplayed":9915,"Ġtherapists":9916,"soups":9917,"Ġrecovery":9918,"Ġelevators":9919,"Ġinitially":9920,"Ġrosemary":9921,"Ġprecise":9922,"Ġtremendously":9923,"Ġlaundromat":9924,"Ġdocs":9925,"Ġpiper":9926,"Ġventilation":9927,"Ġblessed":9928,"Ġunreliable":9929,"Ġmoldy":9930,"Ġvendors":9931,"missive":9932,"craig":9933,"Ġrelief":9934,"Ġmaterials":9935,"trader":9936,"zola":9937,"Ġallergies":9938,"Ġshooting":9939,"Ġcraftsmanship":9940,"Ġteppanyaki":9941,"Ġteenagers":9942,"Ġmunchies":9943,"Ġmaple":9944,"Ġmaker":9945,"linda":9946,"michelle":9947,"wifi":9948,"gherita":9949,"Ġbianco":9950,"Ġbreeze":9951,"whether":9952,"Ġcooper":9953,"lapia":9954,"commun":9955,"parents":9956,"orgonzola":9957,"lognese":9958,"Ġvenues":9959,"Ġhispanic":9960,"aut":9961,"aist":9962,"creat":9963,"hert":9964,"hana":9965,"hrs":9966,"ipp":9967,"late":9968,"mate":9969,"mitted":9970,"others":9971,"part":9972,"pically":9973,"rub":9974,"tough":9975,"uine":9976,"vid":9977,"victor":9978,"wire":9979,"Ġ]":9980,"Ġwally":9981,"Ġsin":9982,"Ġsig":9983,"Ġbump":9984,"Ġborn":9985,"Ġbummer":9986,"Ġbourbon":9987,"Ġtune":9988,"Ġoun":9989,"oops":9990,"ench":9991,"lligent":9992,"oria":9993,"Ġniece":9994,"isin":9995,"Ġluster":9996,"rial":9997,"lemon":9998,"Ġrevisit":9999,"ereo":10000,"arity":10001,"Ġhaha":10002,"Ġstench":10003,"elen":10004}